#ifndef MODEL_DATA_H
#define MODEL_DATA_H

const unsigned int model_data_len = 6168;
const unsigned char model_data[] = {
  0x20, 0x00, 0x00, 0x00, 0x54, 0x46, 0x4c, 0x33, 0x00, 0x00, 0x00, 0x00, 
  0x14, 0x00, 0x20, 0x00, 0x1c, 0x00, 0x18, 0x00, 0x14, 0x00, 0x10, 0x00, 
  0x0c, 0x00, 0x00, 0x00, 0x08, 0x00, 0x04, 0x00, 0x14, 0x00, 0x00, 0x00, 
  0x1c, 0x00, 0x00, 0x00, 0x84, 0x00, 0x00, 0x00, 0x04, 0x01, 0x00, 0x00, 
  0x0c, 0x10, 0x00, 0x00, 0x1c, 0x10, 0x00, 0x00, 0xa8, 0x17, 0x00, 0x00, 
  0x03, 0x00, 0x00, 0x00, 0x01, 0x00, 0x00, 0x00, 0x04, 0x00, 0x00, 0x00, 
  0xa6, 0xef, 0xff, 0xff, 0x0c, 0x00, 0x00, 0x00, 0x1c, 0x00, 0x00, 0x00, 
  0x3c, 0x00, 0x00, 0x00, 0x0f, 0x00, 0x00, 0x00, 0x73, 0x65, 0x72, 0x76, 
  0x69, 0x6e, 0x67, 0x5f, 0x64, 0x65, 0x66, 0x61, 0x75, 0x6c, 0x74, 0x00, 
  0x01, 0x00, 0x00, 0x00, 0x04, 0x00, 0x00, 0x00, 0x70, 0xff, 0xff, 0xff, 
  0x07, 0x00, 0x00, 0x00, 0x04, 0x00, 0x00, 0x00, 0x08, 0x00, 0x00, 0x00, 
  0x6f, 0x75, 0x74, 0x70, 0x75, 0x74, 0x5f, 0x30, 0x00, 0x00, 0x00, 0x00, 
  0x01, 0x00, 0x00, 0x00, 0x04, 0x00, 0x00, 0x00, 0x86, 0xf0, 0xff, 0xff, 
  0x04, 0x00, 0x00, 0x00, 0x05, 0x00, 0x00, 0x00, 0x69, 0x6e, 0x70, 0x75, 
  0x74, 0x00, 0x00, 0x00, 0x03, 0x00, 0x00, 0x00, 0x5c, 0x00, 0x00, 0x00, 
  0x2c, 0x00, 0x00, 0x00, 0x04, 0x00, 0x00, 0x00, 0xb8, 0xff, 0xff, 0xff, 
  0x0b, 0x00, 0x00, 0x00, 0x04, 0x00, 0x00, 0x00, 0x13, 0x00, 0x00, 0x00, 
  0x43, 0x4f, 0x4e, 0x56, 0x45, 0x52, 0x53, 0x49, 0x4f, 0x4e, 0x5f, 0x4d, 
  0x45, 0x54, 0x41, 0x44, 0x41, 0x54, 0x41, 0x00, 0xdc, 0xff, 0xff, 0xff, 
  0x0a, 0x00, 0x00, 0x00, 0x04, 0x00, 0x00, 0x00, 0x13, 0x00, 0x00, 0x00, 
  0x6d, 0x69, 0x6e, 0x5f, 0x72, 0x75, 0x6e, 0x74, 0x69, 0x6d, 0x65, 0x5f, 
  0x76, 0x65, 0x72, 0x73, 0x69, 0x6f, 0x6e, 0x00, 0x08, 0x00, 0x0c, 0x00, 
  0x08, 0x00, 0x04, 0x00, 0x08, 0x00, 0x00, 0x00, 0x09, 0x00, 0x00, 0x00, 
  0x04, 0x00, 0x00, 0x00, 0x13, 0x00, 0x00, 0x00, 0x6d, 0x69, 0x6e, 0x5f, 
  0x72, 0x75, 0x6e, 0x74, 0x69, 0x6d, 0x65, 0x5f, 0x76, 0x65, 0x72, 0x73, 
  0x69, 0x6f, 0x6e, 0x00, 0x0c, 0x00, 0x00, 0x00, 0x04, 0x0f, 0x00, 0x00, 
  0xfc, 0x0e, 0x00, 0x00, 0xdc, 0x0e, 0x00, 0x00, 0xc4, 0x0c, 0x00, 0x00, 
  0xd4, 0x00, 0x00, 0x00, 0xcc, 0x00, 0x00, 0x00, 0xc4, 0x00, 0x00, 0x00, 
  0xbc, 0x00, 0x00, 0x00, 0xb4, 0x00, 0x00, 0x00, 0x94, 0x00, 0x00, 0x00, 
  0x74, 0x00, 0x00, 0x00, 0x04, 0x00, 0x00, 0x00, 0x52, 0xf1, 0xff, 0xff, 
  0x04, 0x00, 0x00, 0x00, 0x60, 0x00, 0x00, 0x00, 0x0c, 0x00, 0x00, 0x00, 
  0x08, 0x00, 0x0e, 0x00, 0x08, 0x00, 0x04, 0x00, 0x08, 0x00, 0x00, 0x00, 
  0x10, 0x00, 0x00, 0x00, 0x28, 0x00, 0x00, 0x00, 0x00, 0x00, 0x06, 0x00, 
  0x08, 0x00, 0x04, 0x00, 0x06, 0x00, 0x00, 0x00, 0x04, 0x00, 0x00, 0x00, 
  0x01, 0x00, 0x00, 0x00, 0xeb, 0x03, 0x00, 0x00, 0x0c, 0x00, 0x18, 0x00, 
  0x14, 0x00, 0x10, 0x00, 0x0c, 0x00, 0x04, 0x00, 0x0c, 0x00, 0x00, 0x00, 
  0xba, 0x35, 0x8f, 0xc9, 0x5a, 0x7a, 0x8c, 0x1a, 0x02, 0x00, 0x00, 0x00, 
  0x02, 0x00, 0x00, 0x00, 0x04, 0x00, 0x00, 0x00, 0x06, 0x00, 0x00, 0x00, 
  0x32, 0x2e, 0x31, 0x39, 0x2e, 0x30, 0x00, 0x00, 0xbe, 0xf1, 0xff, 0xff, 
  0x04, 0x00, 0x00, 0x00, 0x10, 0x00, 0x00, 0x00, 0x00, 0x00, 0x00, 0x00, 
  0x00, 0x00, 0x00, 0x00, 0x00, 0x00, 0x00, 0x00, 0x00, 0x00, 0x00, 0x00, 
  0xda, 0xf1, 0xff, 0xff, 0x04, 0x00, 0x00, 0x00, 0x10, 0x00, 0x00, 0x00, 
  0x31, 0x2e, 0x31, 0x34, 0x2e, 0x30, 0x00, 0x00, 0x00, 0x00, 0x00, 0x00, 
  0x00, 0x00, 0x00, 0x00, 0x28, 0xf1, 0xff, 0xff, 0x2c, 0xf1, 0xff, 0xff, 
  0x30, 0xf1, 0xff, 0xff, 0x34, 0xf1, 0xff, 0xff, 0x06, 0xf2, 0xff, 0xff, 
  0x04, 0x00, 0x00, 0x00, 0xe0, 0x0b, 0x00, 0x00, 0xe7, 0x35, 0x42, 0xc8, 
  0xc5, 0xed, 0x44, 0x13, 0x00, 0xd2, 0x93, 0xf0, 0x89, 0x49, 0xd2, 0xba, 
  0x22, 0xe8, 0x61, 0xde, 0xee, 0xe1, 0xdc, 0xd4, 0xf4, 0x49, 0xc6, 0xa8, 
  0x68, 0x40, 0x6f, 0x09, 0xb6, 0x91, 0x8d, 0x56, 0x70, 0x20, 0x5d, 0x79, 
  0xeb, 0x7f, 0x39, 0xfc, 0x2c, 0xf6, 0x95, 0xde, 0x7a, 0x37, 0x89, 0x85, 
  0x7e, 0x38, 0xdd, 0xf9, 0x17, 0xdc, 0xa2, 0x51, 0x26, 0x33, 0xe7, 0x36, 
  0x92, 0x8b, 0x07, 0x41, 0xcc, 0xd7, 0xdc, 0x43, 0x53, 0xdb, 0xb3, 0xd1, 
  0xcc, 0x63, 0xc8, 0x52, 0xd2, 0x8f, 0xcf, 0x6e, 0x03, 0x20, 0x4f, 0x04, 
  0x73, 0xeb, 0xe3, 0xec, 0xc3, 0x26, 0x66, 0xc9, 0x87, 0x5c, 0x4f, 0x0e, 
  0x8a, 0x08, 0x46, 0x7e, 0x1e, 0x61, 0xa6, 0xc7, 0xd8, 0xbb, 0xcb, 0xc9, 
  0xe4, 0xad, 0x3c, 0x04, 0xf1, 0xe6, 0xbf, 0x4d, 0x28, 0xd4, 0x40, 0xfa, 
  0x40, 0x04, 0x31, 0x28, 0x6c, 0x7e, 0xbe, 0x05, 0x5c, 0x40, 0x79, 0xf1, 
  0xdf, 0x1c, 0x33, 0x70, 0xec, 0x4f, 0x21, 0xc8, 0x95, 0x73, 0x69, 0x1b, 
  0x3a, 0x50, 0x34, 0xe4, 0x11, 0x1a, 0x9f, 0x99, 0x49, 0xa5, 0x12, 0x7f, 
  0x37, 0x6e, 0x46, 0x3c, 0x61, 0x84, 0xe4, 0x5b, 0xcb, 0x84, 0x6a, 0xa9, 
  0x15, 0x1a, 0xf2, 0x19, 0x7a, 0xa7, 0xf6, 0x8f, 0x0e, 0xf7, 0x53, 0x0e, 
  0x69, 0x8a, 0x01, 0xee, 0x09, 0xe2, 0x26, 0x06, 0xc5, 0xfd, 0xfe, 0x92, 
  0x4a, 0x48, 0xa8, 0x78, 0x16, 0x8c, 0x63, 0x49, 0xfe, 0x1a, 0x24, 0xcb, 
  0x09, 0xf5, 0xc8, 0x86, 0x6f, 0xe7, 0xb1, 0xeb, 0xbc, 0xe2, 0x81, 0x21, 
  0x13, 0xb9, 0xaf, 0x77, 0x8e, 0x9f, 0xd4, 0xd0, 0xe3, 0x9c, 0x15, 0x73, 
  0x5c, 0x5b, 0x18, 0x36, 0xc6, 0xa9, 0x1d, 0xca, 0x43, 0x25, 0x21, 0xa3, 
  0x94, 0x8a, 0xf5, 0x55, 0x98, 0x88, 0x37, 0x35, 0x40, 0x2e, 0x0c, 0x2f, 
  0xdf, 0xa9, 0x44, 0x1b, 0x65, 0x08, 0xcf, 0x98, 0xd4, 0xa1, 0xe6, 0xcd, 
  0xa1, 0x3c, 0x43, 0x07, 0x59, 0xcc, 0x26, 0x28, 0x11, 0x8b, 0x2d, 0xbc, 
  0x05, 0x45, 0x9f, 0xb3, 0xfe, 0xa6, 0x1e, 0x90, 0xde, 0x48, 0xb0, 0x1c, 
  0xba, 0xe5, 0x15, 0x97, 0xbf, 0x3a, 0xd5, 0x31, 0x31, 0xc1, 0xeb, 0x1d, 
  0x13, 0x5b, 0x14, 0x18, 0xd8, 0x65, 0x79, 0xf6, 0xd8, 0xe7, 0x1e, 0x4a, 
  0xab, 0xed, 0xf9, 0xc7, 0x18, 0xab, 0xfb, 0x82, 0x9e, 0xa7, 0xb9, 0x21, 
  0x3a, 0x65, 0x81, 0xfc, 0x0c, 0x2f, 0xb2, 0x48, 0x56, 0xa5, 0xbd, 0x0c, 
  0xc3, 0x0d, 0x38, 0xcf, 0x42, 0xfd, 0xa7, 0x7d, 0xa2, 0x2a, 0xd9, 0x1f, 
  0x4a, 0xa1, 0xe6, 0xc2, 0x18, 0x04, 0x11, 0x31, 0xf2, 0x10, 0x7b, 0x8d, 
  0xe0, 0x18, 0xfa, 0x6b, 0x35, 0x28, 0xa5, 0x05, 0xba, 0x71, 0x0f, 0x50, 
  0x15, 0xe6, 0x41, 0x12, 0xbf, 0x51, 0x8c, 0x25, 0xae, 0x9a, 0x30, 0x49, 
  0x35, 0x33, 0x5d, 0xc8, 0xbb, 0x8d, 0xab, 0x87, 0x4c, 0x17, 0x29, 0x1a, 
  0x65, 0x64, 0xe6, 0xed, 0xd2, 0x02, 0x32, 0xd0, 0x74, 0x32, 0xe2, 0x69, 
  0x95, 0x97, 0x4d, 0x12, 0x1a, 0x9e, 0x4f, 0x85, 0xbf, 0xe2, 0xb7, 0x84, 
  0x7d, 0xe1, 0x3e, 0xee, 0xe1, 0xf4, 0x50, 0xe2, 0xa3, 0xe5, 0x42, 0x2f, 
  0x91, 0xd6, 0x31, 0xd9, 0xfc, 0x91, 0x3e, 0x9b, 0xf1, 0x70, 0x1c, 0x82, 
  0x9d, 0x0c, 0xa8, 0xc2, 0x11, 0xda, 0x72, 0xbd, 0x09, 0xca, 0x12, 0x45, 
  0x85, 0xb6, 0x54, 0x0c, 0xdb, 0x09, 0xf6, 0x81, 0x3f, 0x10, 0xfe, 0x84, 
  0x0a, 0x18, 0x05, 0xf8, 0x0c, 0xcd, 0x26, 0x7b, 0x19, 0xde, 0x83, 0x1f, 
  0x1a, 0x5b, 0x92, 0xde, 0xa9, 0x4b, 0xdc, 0x5d, 0x9e, 0x43, 0x04, 0xdb, 
  0xf4, 0xbb, 0xfa, 0x83, 0x0e, 0x2f, 0xc0, 0x94, 0x33, 0x59, 0x4a, 0x58, 
  0xac, 0xa6, 0x36, 0xb9, 0xd8, 0xfb, 0x81, 0x37, 0x91, 0xf9, 0x34, 0x70, 
  0x35, 0xfa, 0xb3, 0x69, 0x20, 0xf2, 0x1f, 0x20, 0x3a, 0x03, 0x5f, 0x0a, 
  0x6a, 0xd2, 0x01, 0xd3, 0x18, 0x13, 0xcb, 0x71, 0x01, 0xce, 0xb8, 0x6e, 
  0x74, 0x47, 0x1a, 0xf3, 0x0a, 0xee, 0xdc, 0xda, 0x14, 0xc6, 0x7e, 0x3c, 
  0xbc, 0x06, 0x20, 0xf6, 0x58, 0x04, 0x69, 0xb6, 0xcf, 0xeb, 0xfd, 0x69, 
  0x8b, 0x47, 0xe2, 0x66, 0x93, 0x8f, 0x09, 0x28, 0x48, 0x6a, 0x54, 0x4f, 
  0xa9, 0xb2, 0x09, 0x97, 0x52, 0xaa, 0x03, 0xf8, 0x20, 0xa0, 0x7a, 0x74, 
  0x6f, 0x68, 0x62, 0xaf, 0x75, 0x3a, 0x22, 0x84, 0xb3, 0x50, 0xfe, 0xd1, 
  0xa6, 0x7f, 0xc0, 0x3a, 0x8c, 0x9a, 0x3f, 0x22, 0xcc, 0x98, 0x94, 0x36, 
  0x21, 0x20, 0x2f, 0x4a, 0x95, 0x69, 0x1a, 0x69, 0x8f, 0xba, 0x87, 0xcc, 
  0xca, 0xde, 0xd0, 0x34, 0x6a, 0xe5, 0x56, 0xbd, 0xa2, 0xee, 0xd0, 0x88, 
  0xf8, 0x74, 0x3e, 0x82, 0x6d, 0xda, 0x84, 0x2a, 0xb2, 0x43, 0x2d, 0x37, 
  0x78, 0xfd, 0x55, 0x08, 0x0d, 0xd7, 0x7b, 0xe6, 0x2b, 0xfe, 0x1c, 0x2f, 
  0x15, 0xe4, 0x63, 0x7b, 0x37, 0xc4, 0x44, 0x51, 0xfe, 0x2c, 0xff, 0x58, 
  0x9b, 0x0f, 0xa7, 0x08, 0x9f, 0x85, 0x89, 0xd3, 0xd6, 0xa1, 0xff, 0xbc, 
  0xbc, 0x47, 0x9c, 0xdd, 0xff, 0xb4, 0x25, 0xe4, 0x46, 0x81, 0x0d, 0xa4, 
  0x2a, 0x00, 0x09, 0x36, 0x18, 0x95, 0x0d, 0xa0, 0xf0, 0x05, 0xfa, 0x57, 
  0x95, 0x43, 0x85, 0xa6, 0xca, 0x98, 0x66, 0xcf, 0x8f, 0x02, 0xc6, 0x5f, 
  0x36, 0xdd, 0x34, 0x22, 0xa6, 0x83, 0x96, 0x66, 0x42, 0xd2, 0x70, 0x9b, 
  0x3f, 0x73, 0x5e, 0xe4, 0xba, 0x83, 0x76, 0x6c, 0xb8, 0x69, 0x8a, 0xef, 
  0xe9, 0xdf, 0x69, 0x1d, 0x25, 0x0d, 0x08, 0x4e, 0xeb, 0xd1, 0x12, 0x2b, 
  0x57, 0x02, 0x63, 0x69, 0x6c, 0xaa, 0x1b, 0x5e, 0x1e, 0x40, 0x50, 0x6e, 
  0x0b, 0x98, 0xba, 0xb6, 0xde, 0x15, 0x2f, 0x40, 0x59, 0x2b, 0x92, 0x4b, 
  0x68, 0x97, 0x9b, 0x4a, 0xbe, 0x03, 0x45, 0xaa, 0x4e, 0x2c, 0xa3, 0x4e, 
  0xe1, 0xfb, 0x81, 0x6e, 0x28, 0xb3, 0xd7, 0xdb, 0x8c, 0xa4, 0xd5, 0x2e, 
  0x1b, 0x14, 0x7d, 0x6c, 0x21, 0x3a, 0xd4, 0xa1, 0xb0, 0x3a, 0xe3, 0x27, 
  0x18, 0xbd, 0x70, 0x5c, 0x0b, 0xe9, 0x5b, 0x12, 0xb5, 0xfe, 0xeb, 0xfd, 
  0xed, 0xd3, 0x10, 0x35, 0x1e, 0x05, 0xb5, 0xd8, 0x3d, 0x54, 0xff, 0x47, 
  0xcb, 0x64, 0x9b, 0x9e, 0xf3, 0x96, 0x26, 0xc3, 0xa2, 0xae, 0xf4, 0xe5, 
  0xc6, 0x36, 0x2c, 0x5c, 0x60, 0x32, 0xe8, 0x05, 0xa4, 0x7f, 0xe0, 0x5b, 
  0xa6, 0x73, 0x31, 0x1c, 0xa5, 0xa3, 0xfb, 0x1d, 0x43, 0x71, 0x99, 0xbc, 
  0xc1, 0xc8, 0x72, 0x7e, 0x76, 0x1d, 0x07, 0x3a, 0x88, 0xe6, 0xe3, 0xba, 
  0x61, 0x61, 0x28, 0xad, 0xe7, 0x42, 0x99, 0x1c, 0x33, 0xc5, 0xd4, 0x40, 
  0xc0, 0x03, 0x9d, 0x8e, 0x60, 0xe0, 0xe8, 0x62, 0x1a, 0xc7, 0x49, 0x44, 
  0xb7, 0xb1, 0x8f, 0x36, 0xad, 0x05, 0x09, 0x65, 0x40, 0xd6, 0x54, 0xe2, 
  0x27, 0x47, 0xf6, 0x8e, 0x56, 0xd1, 0xea, 0x2f, 0x62, 0xe5, 0x4f, 0xdc, 
  0xb2, 0xef, 0xd7, 0x9a, 0xf4, 0xa0, 0x70, 0x34, 0xd5, 0xcb, 0x9e, 0xf2, 
  0x09, 0xdd, 0x67, 0x17, 0x3c, 0x81, 0x1c, 0x64, 0x4d, 0x75, 0x7d, 0xaa, 
  0x98, 0xaa, 0x11, 0xdc, 0x70, 0x06, 0x42, 0x36, 0x0e, 0x59, 0x09, 0x30, 
  0xc4, 0xc4, 0xea, 0xcf, 0x11, 0x39, 0x5b, 0x3f, 0x26, 0x70, 0xb0, 0x30, 
  0x1e, 0x8d, 0x22, 0xaa, 0x26, 0x66, 0xf2, 0xf8, 0x2a, 0x56, 0x14, 0xf9, 
  0xdf, 0x88, 0x26, 0x3b, 0xa5, 0x0e, 0x39, 0xe4, 0xc4, 0x50, 0x5e, 0xff, 
  0xf1, 0x92, 0x27, 0xc1, 0xd0, 0xd7, 0xb3, 0x65, 0xb6, 0x62, 0xc4, 0xf0, 
  0x50, 0xe4, 0x11, 0x9e, 0x87, 0x48, 0xad, 0x54, 0x50, 0xfe, 0x66, 0x20, 
  0x8f, 0xcf, 0xa3, 0x70, 0xb1, 0x0c, 0x9c, 0x9e, 0xa6, 0x51, 0x2f, 0xee, 
  0xe9, 0x35, 0xe1, 0x5f, 0x7b, 0xbe, 0xbf, 0xac, 0x89, 0x1b, 0x76, 0x41, 
  0x6f, 0x76, 0x76, 0xfd, 0x9e, 0x1f, 0x08, 0x38, 0x62, 0xb6, 0xb6, 0x40, 
  0x31, 0x5a, 0x1f, 0x91, 0xf1, 0x7d, 0xfb, 0x8c, 0x2a, 0x8d, 0x15, 0xd1, 
  0xb4, 0x0e, 0x82, 0x03, 0xf2, 0x74, 0x4b, 0xe4, 0x41, 0x93, 0x6c, 0xf4, 
  0x55, 0xb1, 0x3f, 0xfa, 0x5c, 0xac, 0x62, 0x5b, 0x9f, 0xb1, 0x48, 0xa8, 
  0x16, 0x94, 0x3d, 0x7d, 0xc0, 0x29, 0x1b, 0x70, 0x5f, 0x89, 0xfb, 0x23, 
  0x57, 0x63, 0x0c, 0x0f, 0x78, 0x7f, 0xd1, 0xeb, 0x43, 0xc9, 0x60, 0xb9, 
  0x6b, 0x02, 0xce, 0x2a, 0x98, 0xc5, 0xbb, 0x9f, 0xa2, 0xdc, 0x85, 0x49, 
  0xb8, 0x8e, 0x42, 0x8c, 0xd4, 0x24, 0x31, 0xc1, 0x25, 0x6a, 0x9d, 0x70, 
  0x37, 0x9a, 0x86, 0x1d, 0x98, 0xcd, 0x5f, 0x01, 0x8f, 0xa5, 0xc6, 0xdc, 
  0x03, 0xf3, 0x94, 0x0a, 0x95, 0xf1, 0xe0, 0xa8, 0x88, 0x62, 0xb1, 0x55, 
  0xdf, 0x6b, 0x8a, 0xef, 0x55, 0x21, 0x15, 0xc0, 0x64, 0xa1, 0x33, 0x0d, 
  0xaf, 0xd5, 0xbe, 0x27, 0x43, 0x7c, 0xbe, 0x95, 0xa0, 0xb6, 0x2a, 0x10, 
  0xb8, 0x28, 0x28, 0x95, 0x69, 0x49, 0x70, 0x92, 0x57, 0x36, 0x2f, 0xc6, 
  0x37, 0xe4, 0xf1, 0xc7, 0x21, 0x95, 0xb0, 0x7a, 0x76, 0x68, 0xf3, 0x81, 
  0x40, 0xf1, 0xbd, 0x43, 0x3f, 0x61, 0x00, 0x0c, 0x46, 0xc6, 0x2c, 0x9d, 
  0x4e, 0x47, 0xd4, 0x71, 0x07, 0x33, 0xeb, 0x76, 0x5b, 0x54, 0x98, 0x34, 
  0x88, 0xca, 0x07, 0xba, 0x4d, 0x0e, 0xf4, 0x2c, 0xc2, 0x5c, 0x96, 0x29, 
  0xc0, 0xe5, 0x5a, 0x71, 0x87, 0x16, 0xa9, 0x6d, 0x7a, 0xdf, 0x47, 0x10, 
  0x1e, 0xe0, 0x42, 0x9f, 0x55, 0x76, 0xe4, 0x8c, 0x72, 0x98, 0x09, 0xcd, 
  0x07, 0xbb, 0x7f, 0x7d, 0x3f, 0x24, 0x73, 0x79, 0x84, 0xdd, 0xd6, 0x63, 
  0x77, 0x31, 0x99, 0xe0, 0x87, 0xf8, 0x83, 0x89, 0xe1, 0x2b, 0x78, 0x6a, 
  0x35, 0x88, 0xbf, 0x4a, 0x07, 0x26, 0x8e, 0x97, 0x60, 0xf5, 0xd0, 0x6b, 
  0x59, 0xc3, 0x42, 0x33, 0x8a, 0x7f, 0xdf, 0xa4, 0x9c, 0x12, 0xf8, 0xb5, 
  0x36, 0xda, 0xe4, 0x3f, 0xe2, 0xd8, 0xdc, 0x9d, 0x42, 0x73, 0xa3, 0x8e, 
  0xe8, 0xf1, 0x4e, 0x6a, 0x35, 0xf5, 0x7f, 0xdf, 0xd3, 0x09, 0x6b, 0xbc, 
  0x77, 0x84, 0x9e, 0xc8, 0x33, 0x70, 0xe0, 0x36, 0x1a, 0x1d, 0xf2, 0x7b, 
  0x3f, 0x2c, 0x6d, 0x41, 0x4a, 0xfd, 0x70, 0xa1, 0x76, 0x1e, 0xe4, 0x73, 
  0x6a, 0xff, 0x85, 0x73, 0x24, 0x77, 0x69, 0xe0, 0x02, 0x7e, 0x0d, 0xd9, 
  0x94, 0xb2, 0x87, 0x29, 0xe1, 0x77, 0x04, 0xf2, 0xa7, 0x4c, 0xab, 0xe4, 
  0x5c, 0x97, 0x3e, 0x03, 0x00, 0x43, 0x91, 0x27, 0xc8, 0xeb, 0xfa, 0x8e, 
  0x65, 0xe9, 0xc2, 0xdf, 0x5d, 0x98, 0x00, 0x5a, 0x71, 0xed, 0xad, 0x81, 
  0xb2, 0x8f, 0xa6, 0x82, 0xc0, 0x20, 0xe5, 0x9a, 0x4c, 0x86, 0xb4, 0x6f, 
  0x19, 0xd3, 0x22, 0xe4, 0x92, 0xa6, 0x69, 0xf4, 0xdf, 0x4a, 0xac, 0xc6, 
  0x11, 0xfa, 0xd1, 0xe9, 0xbb, 0xc3, 0x41, 0x4f, 0xdd, 0x6f, 0x59, 0x9b, 
  0x84, 0x2d, 0xd8, 0x6d, 0x90, 0x90, 0x4b, 0x3e, 0xe6, 0xbe, 0x40, 0x97, 
  0xb6, 0xdb, 0x7c, 0x0c, 0x82, 0x59, 0xfe, 0x5c, 0xb1, 0x52, 0x13, 0x4f, 
  0x69, 0x5a, 0x1b, 0x66, 0xf4, 0xf5, 0x92, 0xea, 0xfc, 0xcb, 0x10, 0xb8, 
  0x0b, 0x21, 0xb4, 0x44, 0x71, 0x23, 0x0f, 0x74, 0x1f, 0x87, 0x14, 0x20, 
  0x91, 0xad, 0x4d, 0x1f, 0x4f, 0xb7, 0x90, 0xfd, 0x03, 0x1b, 0x93, 0x9b, 
  0x73, 0xe5, 0x5a, 0xdc, 0x19, 0xa2, 0x58, 0xc3, 0x0e, 0xd6, 0xbb, 0x36, 
  0xbf, 0x53, 0x7f, 0x33, 0x5d, 0x00, 0xbd, 0x36, 0x0e, 0xe2, 0x31, 0x2f, 
  0xd2, 0x18, 0xa9, 0x27, 0x34, 0x93, 0xbc, 0x51, 0xca, 0x4c, 0x48, 0x1f, 
  0xa2, 0xdd, 0x3c, 0x2f, 0x6b, 0xc1, 0x49, 0xbb, 0xd6, 0x5c, 0x9b, 0xae, 
  0x39, 0x46, 0xa8, 0x17, 0x86, 0x76, 0x34, 0x2a, 0xfd, 0xf5, 0x17, 0xb8, 
  0x61, 0xbf, 0x6e, 0x69, 0x30, 0xb9, 0x41, 0x05, 0xe3, 0xbb, 0xf9, 0xc9, 
  0x7c, 0x31, 0xb6, 0x8d, 0x8c, 0x58, 0xc5, 0xd9, 0xa1, 0x4f, 0x02, 0x12, 
  0xd4, 0x5e, 0x0d, 0xba, 0x54, 0xec, 0xf3, 0xe5, 0x30, 0xaa, 0x06, 0x60, 
  0xaf, 0x5b, 0xf6, 0xa6, 0x17, 0x60, 0xc6, 0x04, 0xe6, 0x24, 0x20, 0x77, 
  0x89, 0xb5, 0x4e, 0x10, 0x01, 0xba, 0x0d, 0xdf, 0x96, 0xbf, 0x48, 0xcd, 
  0xfc, 0x0e, 0xe0, 0xd9, 0xba, 0xb7, 0x36, 0x83, 0xb2, 0x3e, 0x6f, 0x28, 
  0xe3, 0x81, 0x39, 0x4e, 0x09, 0x92, 0xa8, 0xbc, 0x42, 0xe5, 0xd9, 0x02, 
  0xf0, 0x4b, 0xb4, 0xc7, 0x75, 0x8c, 0xb1, 0x81, 0x6a, 0x25, 0x93, 0xe7, 
  0xef, 0x35, 0x96, 0xb5, 0x72, 0x8b, 0x28, 0x31, 0x27, 0x9b, 0xb1, 0x60, 
  0xab, 0x50, 0xaa, 0xf5, 0x6d, 0xaf, 0x5c, 0xd0, 0x54, 0x13, 0x28, 0x55, 
  0xb8, 0xdd, 0xcc, 0x51, 0x20, 0x62, 0x87, 0xd7, 0x75, 0x94, 0xb5, 0x17, 
  0x32, 0x27, 0x33, 0x81, 0x34, 0x5a, 0xa2, 0xa5, 0xf4, 0xef, 0x60, 0x6f, 
  0x31, 0xc5, 0xe4, 0x48, 0xb0, 0x8d, 0x00, 0xe8, 0x0d, 0xdd, 0xfc, 0xd7, 
  0x5a, 0x39, 0xea, 0x26, 0xc8, 0xf4, 0xe3, 0xeb, 0x05, 0xe3, 0x64, 0x92, 
  0xf1, 0x93, 0xa5, 0x17, 0x94, 0x90, 0xbc, 0x99, 0x5f, 0x77, 0x97, 0xee, 
  0x5f, 0x35, 0xc3, 0x2b, 0x37, 0x75, 0x28, 0xe2, 0x95, 0xda, 0xfb, 0x3d, 
  0xf2, 0x4e, 0x64, 0x9f, 0xbe, 0xac, 0x8d, 0x62, 0xd8, 0xc9, 0xf0, 0x15, 
  0x1d, 0x5c, 0x84, 0x56, 0x9a, 0x74, 0xb7, 0x3d, 0x97, 0xa8, 0x26, 0x4b, 
  0x37, 0xc0, 0x2a, 0x01, 0x45, 0xd1, 0x25, 0x1e, 0xc3, 0xf1, 0x0a, 0xeb, 
  0xc7, 0x0e, 0x4b, 0x81, 0x28, 0x65, 0xe6, 0x72, 0x99, 0x34, 0x66, 0xbb, 
  0x1c, 0x4b, 0xaf, 0xbd, 0x22, 0xf9, 0xf1, 0xa2, 0x16, 0x01, 0x48, 0xf2, 
  0xb2, 0xde, 0x16, 0xa1, 0xcb, 0xd9, 0x97, 0x88, 0x81, 0x79, 0x01, 0x6f, 
  0x90, 0x73, 0x29, 0x75, 0xb5, 0xf2, 0x37, 0x1c, 0x47, 0x00, 0x08, 0x74, 
  0x0b, 0x76, 0x74, 0x93, 0x8a, 0xb5, 0x10, 0xa9, 0xa4, 0xfe, 0xc5, 0x9f, 
  0x5e, 0x99, 0x4f, 0x3f, 0x4d, 0x6d, 0x59, 0x32, 0x28, 0xf7, 0xc4, 0x1a, 
  0x69, 0x1a, 0x22, 0xcc, 0xa1, 0xd9, 0xcb, 0x94, 0x1b, 0x21, 0x0c, 0x38, 
  0x88, 0x3c, 0xeb, 0x67, 0xd8, 0xe1, 0x42, 0x43, 0xae, 0xdd, 0xf9, 0xf4, 
  0x66, 0x9a, 0x9a, 0xcb, 0xe8, 0x53, 0x97, 0x14, 0x31, 0xf5, 0x7f, 0x01, 
  0xc7, 0x48, 0xcf, 0x86, 0xef, 0xbe, 0x7d, 0x65, 0xfd, 0x17, 0x53, 0x62, 
  0xfd, 0x76, 0x20, 0x39, 0x3a, 0x71, 0x61, 0xc3, 0x78, 0xdf, 0x65, 0x31, 
  0x0e, 0x71, 0xb4, 0x67, 0x48, 0x14, 0x52, 0xdd, 0x40, 0xc1, 0xac, 0xf1, 
  0x77, 0x84, 0x14, 0x2b, 0x53, 0xa7, 0x6f, 0x07, 0xa2, 0x54, 0xe2, 0x61, 
  0xda, 0x75, 0x2c, 0x67, 0xc9, 0xf9, 0x47, 0x2a, 0x0b, 0x1f, 0xed, 0xb1, 
  0x43, 0xb1, 0x78, 0xed, 0xe1, 0x4c, 0x8a, 0xd9, 0xad, 0x1d, 0x59, 0xa9, 
  0x82, 0x8b, 0xa7, 0x21, 0x6a, 0x06, 0x76, 0xf8, 0x5f, 0x50, 0xd6, 0x0b, 
  0xe7, 0x1d, 0x9c, 0xb3, 0xb2, 0x67, 0xea, 0xa7, 0x7e, 0x7f, 0xf2, 0x7d, 
  0x21, 0x94, 0x40, 0xd5, 0xbd, 0xe9, 0x86, 0xe3, 0x05, 0x65, 0xec, 0xf2, 
  0xd8, 0xbc, 0x15, 0x5d, 0x99, 0x2e, 0x75, 0x54, 0xee, 0x5e, 0x6d, 0xff, 
  0x76, 0x04, 0x7c, 0xf1, 0x2a, 0x3d, 0xff, 0x16, 0xe9, 0xdb, 0x8f, 0xc4, 
  0x5b, 0x7b, 0x9d, 0x1e, 0x76, 0x4f, 0x5f, 0x4a, 0xb2, 0x0c, 0x66, 0xf6, 
  0x27, 0x46, 0x14, 0xd9, 0x70, 0xff, 0xe7, 0x17, 0x2a, 0x38, 0x06, 0x57, 
  0xf8, 0x1d, 0xc8, 0x10, 0x8f, 0xde, 0x7d, 0x54, 0x23, 0x21, 0xf1, 0xd9, 
  0x41, 0x09, 0x4d, 0x45, 0x17, 0x81, 0x1d, 0xbf, 0xa2, 0xdb, 0x19, 0xad, 
  0x17, 0x98, 0x43, 0xbc, 0xa4, 0xae, 0x1e, 0x6c, 0x23, 0x8d, 0xc3, 0xb2, 
  0x6f, 0xbd, 0xdc, 0xa6, 0xee, 0x38, 0x44, 0x2e, 0x6d, 0xe0, 0x11, 0xab, 
  0xee, 0x59, 0x78, 0x02, 0xc6, 0x87, 0x67, 0xca, 0xae, 0xe3, 0x72, 0xe1, 
  0xe7, 0x6e, 0x0d, 0x13, 0x27, 0x5e, 0x66, 0x3e, 0x35, 0x7f, 0x26, 0x6f, 
  0xd8, 0x33, 0xde, 0xf6, 0x38, 0xc3, 0x1e, 0xc6, 0xcd, 0x2b, 0xdc, 0x02, 
  0x14, 0x4b, 0xe2, 0x11, 0x5f, 0x96, 0x38, 0x1e, 0x8b, 0xa4, 0x3b, 0xfc, 
  0xf2, 0xb2, 0x1b, 0xac, 0x6e, 0x05, 0x10, 0xac, 0xff, 0x84, 0xd8, 0x12, 
  0xdf, 0x75, 0x8d, 0xfb, 0x5a, 0x52, 0x0d, 0x40, 0x3d, 0x00, 0x55, 0xff, 
  0xba, 0x53, 0x36, 0x8d, 0x78, 0x12, 0xcf, 0xda, 0xe0, 0x4a, 0xb5, 0xb1, 
  0x00, 0x3f, 0x43, 0xee, 0x0f, 0x2c, 0xe8, 0x07, 0xe6, 0xce, 0x0c, 0x74, 
  0xff, 0x7d, 0xb2, 0x61, 0xe2, 0x88, 0x47, 0x3d, 0xa4, 0xfe, 0x2b, 0x47, 
  0xa4, 0x8b, 0xd6, 0xa4, 0x39, 0x37, 0xf3, 0x05, 0x20, 0x7f, 0xd5, 0x40, 
  0x8a, 0x8d, 0x88, 0x2f, 0x05, 0xe0, 0x19, 0x4a, 0xe2, 0xf3, 0x36, 0xe2, 
  0xd1, 0xd1, 0x8e, 0x64, 0x88, 0x67, 0x13, 0x7a, 0xaf, 0x21, 0x11, 0x6f, 
  0x7a, 0xf5, 0xbd, 0x62, 0xdd, 0x62, 0xe9, 0x00, 0xce, 0x7e, 0xb6, 0x51, 
  0x42, 0xaf, 0x0d, 0x02, 0x0e, 0x86, 0xfd, 0x1f, 0x11, 0x24, 0xab, 0x3d, 
  0x39, 0xa7, 0x69, 0xf0, 0x37, 0x9b, 0x7d, 0x69, 0xe6, 0x84, 0x56, 0x78, 
  0xda, 0xe2, 0xc2, 0x46, 0x51, 0xca, 0xd0, 0x8e, 0xa6, 0xf0, 0x9b, 0xcc, 
  0xb5, 0x2d, 0x7a, 0x64, 0x56, 0x88, 0xc0, 0x7a, 0x4f, 0xd3, 0xd6, 0xea, 
  0xb3, 0xc4, 0x01, 0x9b, 0x74, 0x33, 0x7c, 0x97, 0x73, 0xc8, 0x0d, 0x2e, 
  0xf6, 0x2f, 0x28, 0x06, 0x14, 0x44, 0x7f, 0xcb, 0x67, 0x57, 0x47, 0x08, 
  0x20, 0x23, 0xd0, 0xc3, 0xe2, 0x60, 0x6d, 0xe4, 0xcc, 0x97, 0xfb, 0x8f, 
  0x8a, 0x23, 0x7c, 0xe6, 0xdb, 0xc8, 0xc9, 0xa8, 0x14, 0x67, 0x28, 0x53, 
  0xc4, 0xe2, 0xe9, 0x62, 0xdd, 0x6b, 0x8b, 0xf0, 0x18, 0xb9, 0x34, 0xda, 
  0x63, 0x58, 0x5a, 0x0f, 0x6c, 0x7f, 0x92, 0xda, 0x3c, 0x5c, 0x0d, 0x2a, 
  0xb4, 0x9e, 0xa3, 0x84, 0xde, 0x36, 0xd1, 0x4a, 0x88, 0x3e, 0xd0, 0x4c, 
  0x1c, 0x09, 0xc1, 0xa1, 0xfb, 0x83, 0xc3, 0x22, 0xe4, 0x17, 0x0a, 0xe7, 
  0xcd, 0x6a, 0xec, 0x66, 0x41, 0x30, 0x27, 0x1b, 0x1c, 0xe1, 0x73, 0x69, 
  0x08, 0xe4, 0x4f, 0xe3, 0xf0, 0x58, 0x2d, 0x4b, 0xa7, 0xb5, 0x3f, 0x54, 
  0x01, 0x4d, 0xf7, 0xe4, 0x4e, 0x5f, 0xe3, 0xb7, 0x78, 0x6d, 0xbb, 0x54, 
  0x94, 0xab, 0xcb, 0xd7, 0x4b, 0xa8, 0x0c, 0xa5, 0x18, 0x72, 0x79, 0x45, 
  0x68, 0xd0, 0xce, 0x10, 0x7f, 0x0c, 0x12, 0x96, 0x4b, 0x7e, 0x43, 0x73, 
  0x85, 0x48, 0x8a, 0xf3, 0x82, 0x52, 0x6b, 0x29, 0x36, 0x16, 0x57, 0xd7, 
  0x75, 0x1e, 0xa7, 0xca, 0x85, 0xb5, 0x4c, 0xc6, 0x52, 0x71, 0x0e, 0x7f, 
  0x06, 0x92, 0x58, 0x06, 0x4e, 0x1b, 0x23, 0xbc, 0x76, 0x9f, 0x10, 0xcd, 
  0x92, 0x06, 0x91, 0xb6, 0x10, 0x75, 0xd9, 0x03, 0xd9, 0x1c, 0x2a, 0xb1, 
  0x44, 0xe2, 0xbe, 0xce, 0xc9, 0xe1, 0x02, 0x49, 0x14, 0xc3, 0xb4, 0xce, 
  0xf1, 0xcf, 0x02, 0x2f, 0x5d, 0xb6, 0xd8, 0x9a, 0x33, 0x3d, 0x8a, 0x64, 
  0x56, 0x8a, 0x7d, 0xbd, 0x66, 0xf7, 0x6d, 0xb2, 0x8f, 0x4a, 0xac, 0x2c, 
  0x10, 0xf1, 0x2a, 0xbb, 0x1d, 0x55, 0xa2, 0xec, 0xf7, 0xbb, 0xb6, 0xdd, 
  0xb4, 0xe7, 0x52, 0x26, 0x1c, 0xc8, 0xe2, 0xa8, 0x7b, 0x27, 0xa7, 0x57, 
  0x4d, 0x66, 0x19, 0x1b, 0xb0, 0x9f, 0xe8, 0x91, 0xc3, 0x7a, 0x4e, 0x9a, 
  0x8b, 0x21, 0x76, 0xf0, 0x9a, 0x70, 0x3e, 0xfa, 0x3d, 0xd1, 0x1d, 0x7a, 
  0xd8, 0x5a, 0xb8, 0x91, 0xa6, 0x23, 0x1b, 0xec, 0x54, 0xf1, 0x23, 0x6f, 
  0x4d, 0xb9, 0x9f, 0x72, 0x79, 0xee, 0x5f, 0xde, 0x8e, 0x1e, 0x75, 0x96, 
  0x69, 0x84, 0x74, 0x38, 0x1f, 0x34, 0xaa, 0x1a, 0x7f, 0x98, 0x86, 0x59, 
  0xfd, 0x99, 0x39, 0xf8, 0x6d, 0x6a, 0x51, 0x8e, 0xd2, 0x13, 0xd8, 0x68, 
  0xcc, 0x4b, 0xbd, 0x14, 0x7f, 0x03, 0xfb, 0x1d, 0xf8, 0x1e, 0x9e, 0x99, 
  0x32, 0x6a, 0x32, 0xb1, 0xf4, 0xee, 0x3a, 0xbd, 0x93, 0xad, 0xa1, 0xd0, 
  0xb9, 0x07, 0x28, 0x49, 0x4e, 0xee, 0x72, 0x61, 0xb9, 0x2e, 0x5c, 0xfd, 
  0x1b, 0xfd, 0x24, 0x49, 0xba, 0xbf, 0xff, 0x99, 0xbb, 0x5d, 0x91, 0x3a, 
  0x51, 0xc2, 0x15, 0x2a, 0xbf, 0x99, 0xb3, 0x0c, 0x38, 0x38, 0x7e, 0xd2, 
  0xe2, 0xd9, 0x36, 0x55, 0x12, 0x1c, 0x8f, 0xea, 0xd2, 0x1e, 0xfe, 0xc0, 
  0xeb, 0x06, 0xb4, 0xca, 0x13, 0xad, 0xe1, 0x86, 0xf4, 0x1a, 0xc1, 0x81, 
  0xb4, 0xa8, 0x71, 0x06, 0xbf, 0x67, 0x58, 0x19, 0x54, 0xe8, 0x6f, 0x6e, 
  0x78, 0x0e, 0xaa, 0xc7, 0x11, 0x1f, 0xaa, 0xcc, 0xda, 0xc4, 0x22, 0x32, 
  0x5d, 0x94, 0x24, 0x4f, 0x6e, 0x3a, 0x21, 0x4b, 0x25, 0xd4, 0x2c, 0x58, 
  0x64, 0x3a, 0x70, 0x66, 0x9a, 0x82, 0x31, 0x6c, 0xa4, 0x63, 0xb7, 0x79, 
  0x18, 0x8b, 0x4d, 0x35, 0x9c, 0x87, 0xe6, 0x9d, 0x15, 0x03, 0xe8, 0xda, 
  0xa3, 0x99, 0xeb, 0x50, 0xca, 0x8c, 0x5c, 0x77, 0xcb, 0x7f, 0x8c, 0x98, 
  0x53, 0xd4, 0x7c, 0xb7, 0xd2, 0xb7, 0x8f, 0x7c, 0x67, 0xe6, 0x8d, 0xbc, 
  0x78, 0xf9, 0x97, 0x91, 0x37, 0xeb, 0x1c, 0xf9, 0x69, 0x98, 0x29, 0x09, 
  0x4d, 0x5f, 0xe8, 0xc6, 0x32, 0x01, 0x5b, 0xb9, 0x29, 0x20, 0x88, 0x77, 
  0x88, 0x71, 0x2d, 0x2c, 0x11, 0xd5, 0x3b, 0x3c, 0xa0, 0x34, 0xbb, 0x57, 
  0xc5, 0x06, 0x0f, 0xca, 0x29, 0xab, 0x1d, 0x11, 0x9e, 0x60, 0x70, 0xd5, 
  0x21, 0xb2, 0x44, 0x70, 0x8e, 0x23, 0x3c, 0x7a, 0xe5, 0x83, 0x30, 0xba, 
  0xe6, 0x26, 0xd2, 0x19, 0xff, 0x7f, 0x19, 0x8b, 0xda, 0xc1, 0x05, 0x11, 
  0xae, 0xd1, 0xbd, 0x79, 0xc2, 0x1b, 0xf7, 0x9e, 0x87, 0xe9, 0xd4, 0x6a, 
  0xba, 0xbc, 0x36, 0x06, 0xe5, 0xab, 0x22, 0x44, 0xd2, 0x63, 0x2c, 0xcc, 
  0x2d, 0xde, 0xb1, 0x04, 0x52, 0x9c, 0x51, 0x12, 0xb3, 0x07, 0x9f, 0x72, 
  0x66, 0x3a, 0xad, 0xa0, 0x9d, 0xcb, 0xd0, 0x51, 0xbf, 0x8a, 0xf5, 0x21, 
  0x3c, 0x25, 0x29, 0xa7, 0x4c, 0xd9, 0x07, 0xc6, 0xdc, 0xe5, 0x54, 0x32, 
  0x47, 0x55, 0x84, 0x6b, 0x1d, 0x89, 0xd2, 0x36, 0x64, 0x59, 0x74, 0x1e, 
  0xf2, 0x52, 0x36, 0xa3, 0xc9, 0xc0, 0xb2, 0x99, 0x0a, 0x2d, 0x95, 0x2e, 
  0xe6, 0x09, 0x6b, 0x6b, 0x21, 0x0e, 0x1b, 0x8f, 0x39, 0xbe, 0xc3, 0xb8, 
  0x84, 0xb6, 0x13, 0xef, 0xaf, 0xa5, 0x3e, 0xec, 0x3b, 0xd6, 0x40, 0xfe, 
  0x74, 0x3d, 0x81, 0xc8, 0xde, 0x82, 0x83, 0x36, 0x40, 0xc4, 0xfb, 0xe3, 
  0x47, 0x14, 0x19, 0x96, 0x01, 0x78, 0x9a, 0xb8, 0xb1, 0xaf, 0x8a, 0x81, 
  0xf2, 0xfd, 0xff, 0xff, 0x04, 0x00, 0x00, 0x00, 0x00, 0x02, 0x00, 0x00, 
  0xd4, 0xed, 0x92, 0xbf, 0xbb, 0xcb, 0x0c, 0x8c, 0x50, 0x1d, 0xa4, 0x2b, 
  0x7f, 0x61, 0xea, 0x3f, 0x5a, 0xc9, 0x6c, 0x31, 0x9a, 0x3a, 0x4b, 0x61, 
  0x6f, 0xf0, 0x57, 0x5e, 0xff, 0x1f, 0x63, 0xa2, 0x2d, 0xad, 0x6a, 0x27, 
  0x5e, 0x58, 0x55, 0xcf, 0x5a, 0x46, 0xc3, 0x69, 0xa5, 0x6d, 0xf3, 0x73, 
  0xc5, 0x74, 0xcc, 0xa6, 0x79, 0xf9, 0x11, 0xcf, 0xda, 0x8d, 0x4c, 0x87, 
  0x72, 0x30, 0x7c, 0x7f, 0xea, 0x0a, 0x1c, 0x11, 0xbd, 0x4f, 0x20, 0x2a, 
  0xa9, 0xcf, 0x08, 0x56, 0x7f, 0x91, 0xf5, 0xe6, 0xa4, 0x87, 0x5f, 0x9b, 
  0x63, 0xab, 0x5d, 0x2f, 0x65, 0x7f, 0xe3, 0xc3, 0x99, 0x59, 0x22, 0x3c, 
  0xa0, 0x83, 0x97, 0x92, 0x54, 0xc9, 0x2f, 0x7f, 0xa2, 0x33, 0x94, 0xba, 
  0xfa, 0xe1, 0x3c, 0x43, 0x1a, 0x2a, 0xf8, 0x34, 0x53, 0xb8, 0x30, 0x32, 
  0x1a, 0xc4, 0x13, 0x70, 0x00, 0xc1, 0x7c, 0x42, 0x38, 0xa5, 0x06, 0xcb, 
  0x18, 0xd8, 0x05, 0x84, 0x5d, 0xe8, 0xe3, 0x63, 0xea, 0xf5, 0xd0, 0x95, 
  0x5b, 0x9b, 0xaf, 0x42, 0x71, 0x9a, 0xcf, 0xe1, 0x81, 0x8b, 0x1b, 0x7b, 
  0x5b, 0x27, 0xb4, 0xef, 0x7c, 0xd5, 0x19, 0x88, 0x91, 0x2b, 0xf8, 0x31, 
  0xf9, 0xed, 0x73, 0xd5, 0x51, 0xdf, 0xa9, 0x25, 0x8f, 0x70, 0x67, 0x0d, 
  0x7a, 0x88, 0x96, 0x82, 0x68, 0x81, 0xe1, 0xb7, 0x8a, 0x4a, 0xb4, 0x36, 
  0x95, 0x0c, 0x33, 0xfb, 0x65, 0xf4, 0x7f, 0x43, 0xe8, 0xdf, 0x02, 0x74, 
  0xfc, 0x36, 0x39, 0xdc, 0x41, 0x04, 0xe9, 0xf2, 0x3b, 0x9c, 0xcb, 0x24, 
  0x22, 0x7a, 0x13, 0x8e, 0x6d, 0x32, 0x84, 0x97, 0xa7, 0x8c, 0x2f, 0x65, 
  0xe9, 0xe1, 0x50, 0x21, 0xd5, 0x06, 0xcf, 0x4b, 0x32, 0x75, 0x72, 0x36, 
  0x10, 0x06, 0x13, 0x5b, 0x37, 0x2a, 0xa2, 0xc0, 0x7f, 0x06, 0x96, 0x17, 
  0x66, 0x95, 0xcd, 0x39, 0xa9, 0x32, 0xef, 0x78, 0x25, 0x03, 0x0e, 0xab, 
  0x22, 0x8d, 0x61, 0xb2, 0x10, 0x93, 0x64, 0x02, 0xf2, 0x81, 0xde, 0x36, 
  0x78, 0xce, 0x7c, 0xf4, 0x2c, 0xe4, 0x78, 0x5d, 0x53, 0xf1, 0xd3, 0xd9, 
  0xdc, 0x8f, 0x81, 0xfa, 0xc7, 0x01, 0x03, 0x32, 0x33, 0x5c, 0xcc, 0x6e, 
  0x9b, 0xf5, 0x35, 0x42, 0xe8, 0x95, 0x3c, 0xf3, 0xf5, 0xfc, 0x4c, 0x95, 
  0x74, 0x61, 0xfe, 0xed, 0x0c, 0xe5, 0xbb, 0x21, 0xb4, 0x74, 0x66, 0x28, 
  0x46, 0x41, 0xbf, 0x2d, 0xc1, 0xe3, 0x79, 0xc0, 0x70, 0x7f, 0xdb, 0x01, 
  0x73, 0x47, 0x52, 0x8b, 0xda, 0xce, 0xa6, 0x62, 0xf3, 0x8a, 0xb6, 0xb9, 
  0x53, 0x17, 0x14, 0xae, 0x98, 0x0b, 0xee, 0x81, 0xe5, 0x23, 0x68, 0x6e, 
  0x79, 0x2a, 0x28, 0xd9, 0x40, 0x26, 0xea, 0x34, 0xcd, 0xf4, 0x8e, 0xfe, 
  0x4d, 0x84, 0xa2, 0x6e, 0x02, 0x8e, 0xa6, 0x69, 0x18, 0xb4, 0x13, 0xb8, 
  0x85, 0x89, 0xfc, 0x5a, 0x29, 0x21, 0x65, 0x8d, 0x4e, 0x2c, 0xa6, 0x92, 
  0x7f, 0xb3, 0x74, 0x90, 0x41, 0x58, 0x7f, 0x36, 0x08, 0x21, 0x29, 0x0d, 
  0x2e, 0xbc, 0xba, 0x10, 0xe7, 0x37, 0x21, 0x74, 0x6b, 0x5e, 0xef, 0xd0, 
  0x7a, 0xa9, 0x9b, 0x81, 0x9b, 0x0a, 0xe5, 0xf1, 0x28, 0x61, 0xc2, 0xf6, 
  0x77, 0x5e, 0x2b, 0x61, 0x98, 0x15, 0x39, 0x1f, 0x58, 0x75, 0x70, 0x9d, 
  0x58, 0x0e, 0x4b, 0xae, 0x7a, 0x82, 0xb3, 0x96, 0xa3, 0xc0, 0x9e, 0x72, 
  0x44, 0x4a, 0xd5, 0x8c, 0x31, 0x20, 0x88, 0xf8, 0xd3, 0xf0, 0x3b, 0x81, 
  0x47, 0x7f, 0x5d, 0x8a, 0x70, 0xfe, 0x8a, 0xdf, 0x9d, 0x40, 0x6b, 0xf4, 
  0x7f, 0xae, 0xff, 0x99, 0x78, 0xf5, 0x6a, 0x83, 0x26, 0x4d, 0x8b, 0x29, 
  0xd7, 0x14, 0xae, 0x4e, 0x7d, 0xe8, 0xce, 0x6f, 0x53, 0x31, 0x3d, 0x26, 
  0xc5, 0xdd, 0xfe, 0xb1, 0xc4, 0xe2, 0xcd, 0xb8, 0x00, 0x00, 0x06, 0x00, 
  0x08, 0x00, 0x04, 0x00, 0x06, 0x00, 0x00, 0x00, 0x04, 0x00, 0x00, 0x00, 
  0x10, 0x00, 0x00, 0x00, 0xbb, 0x28, 0x89, 0x02, 0x69, 0xe7, 0x20, 0x59, 
  0x8b, 0x25, 0x03, 0x16, 0x6e, 0x89, 0x81, 0xf5, 0x54, 0xff, 0xff, 0xff, 
  0x58, 0xff, 0xff, 0xff, 0x0f, 0x00, 0x00, 0x00, 0x4d, 0x4c, 0x49, 0x52, 
  0x20, 0x43, 0x6f, 0x6e, 0x76, 0x65, 0x72, 0x74, 0x65, 0x64, 0x2e, 0x00, 
  0x01, 0x00, 0x00, 0x00, 0x14, 0x00, 0x00, 0x00, 0x00, 0x00, 0x0e, 0x00, 
  0x18, 0x00, 0x14, 0x00, 0x10, 0x00, 0x0c, 0x00, 0x08, 0x00, 0x04, 0x00, 
  0x0e, 0x00, 0x00, 0x00, 0x14, 0x00, 0x00, 0x00, 0x1c, 0x00, 0x00, 0x00, 
  0x0c, 0x01, 0x00, 0x00, 0x10, 0x01, 0x00, 0x00, 0x14, 0x01, 0x00, 0x00, 
  0x04, 0x00, 0x00, 0x00, 0x6d, 0x61, 0x69, 0x6e, 0x00, 0x00, 0x00, 0x00, 
  0x04, 0x00, 0x00, 0x00, 0xb4, 0x00, 0x00, 0x00, 0x6c, 0x00, 0x00, 0x00, 
  0x34, 0x00, 0x00, 0x00, 0x10, 0x00, 0x00, 0x00, 0x00, 0x00, 0x0a, 0x00, 
  0x10, 0x00, 0x0c, 0x00, 0x08, 0x00, 0x04, 0x00, 0x0a, 0x00, 0x00, 0x00, 
  0x0c, 0x00, 0x00, 0x00, 0x10, 0x00, 0x00, 0x00, 0x01, 0x00, 0x00, 0x00, 
  0x01, 0x00, 0x00, 0x00, 0x07, 0x00, 0x00, 0x00, 0x01, 0x00, 0x00, 0x00, 
  0x06, 0x00, 0x00, 0x00, 0x96, 0xff, 0xff, 0xff, 0x14, 0x00, 0x00, 0x00, 
  0x00, 0x00, 0x00, 0x08, 0x10, 0x00, 0x00, 0x00, 0x14, 0x00, 0x00, 0x00, 
  0x04, 0x00, 0x04, 0x00, 0x04, 0x00, 0x00, 0x00, 0x01, 0x00, 0x00, 0x00, 
  0x06, 0x00, 0x00, 0x00, 0x03, 0x00, 0x00, 0x00, 0x05, 0x00, 0x00, 0x00, 
  0x01, 0x00, 0x00, 0x00, 0xff, 0xff, 0xff, 0xff, 0xca, 0xff, 0xff, 0xff, 
  0x10, 0x00, 0x00, 0x00, 0x00, 0x00, 0x00, 0x08, 0x10, 0x00, 0x00, 0x00, 
  0x14, 0x00, 0x00, 0x00, 0xba, 0xff, 0xff, 0xff, 0x00, 0x00, 0x00, 0x01, 
  0x01, 0x00, 0x00, 0x00, 0x05, 0x00, 0x00, 0x00, 0x03, 0x00, 0x00, 0x00, 
  0x04, 0x00, 0x00, 0x00, 0x02, 0x00, 0x00, 0x00, 0xff, 0xff, 0xff, 0xff, 
  0x00, 0x00, 0x0e, 0x00, 0x16, 0x00, 0x00, 0x00, 0x10, 0x00, 0x0c, 0x00, 
  0x0b, 0x00, 0x04, 0x00, 0x0e, 0x00, 0x00, 0x00, 0x18, 0x00, 0x00, 0x00, 
  0x00, 0x00, 0x00, 0x08, 0x18, 0x00, 0x00, 0x00, 0x1c, 0x00, 0x00, 0x00, 
  0x00, 0x00, 0x06, 0x00, 0x08, 0x00, 0x07, 0x00, 0x06, 0x00, 0x00, 0x00, 
  0x00, 0x00, 0x00, 0x01, 0x01, 0x00, 0x00, 0x00, 0x04, 0x00, 0x00, 0x00, 
  0x03, 0x00, 0x00, 0x00, 0x00, 0x00, 0x00, 0x00, 0x03, 0x00, 0x00, 0x00, 
  0xff, 0xff, 0xff, 0xff, 0x01, 0x00, 0x00, 0x00, 0x07, 0x00, 0x00, 0x00, 
  0x01, 0x00, 0x00, 0x00, 0x00, 0x00, 0x00, 0x00, 0x08, 0x00, 0x00, 0x00, 
  0xcc, 0x05, 0x00, 0x00, 0x4c, 0x05, 0x00, 0x00, 0x18, 0x04, 0x00, 0x00, 
  0x3c, 0x02, 0x00, 0x00, 0xa0, 0x01, 0x00, 0x00, 0x04, 0x01, 0x00, 0x00, 
  0x80, 0x00, 0x00, 0x00, 0x04, 0x00, 0x00, 0x00, 0x6a, 0xfa, 0xff, 0xff, 
  0x00, 0x00, 0x00, 0x01, 0x18, 0x00, 0x00, 0x00, 0x20, 0x00, 0x00, 0x00, 
  0x3c, 0x00, 0x00, 0x00, 0x08, 0x00, 0x00, 0x00, 0x00, 0x00, 0x00, 0x09, 
  0x50, 0x00, 0x00, 0x00, 0x02, 0x00, 0x00, 0x00, 0xff, 0xff, 0xff, 0xff, 
  0x01, 0x00, 0x00, 0x00, 0x54, 0xfa, 0xff, 0xff, 0x08, 0x00, 0x00, 0x00, 
  0x10, 0x00, 0x00, 0x00, 0x01, 0x00, 0x00, 0x00, 0x80, 0xff, 0xff, 0xff, 
  0xff, 0xff, 0xff, 0xff, 0x01, 0x00, 0x00, 0x00, 0x00, 0x00, 0x80, 0x3b, 
  0x1b, 0x00, 0x00, 0x00, 0x53, 0x74, 0x61, 0x74, 0x65, 0x66, 0x75, 0x6c, 
  0x50, 0x61, 0x72, 0x74, 0x69, 0x74, 0x69, 0x6f, 0x6e, 0x65, 0x64, 0x43, 
  0x61, 0x6c, 0x6c, 0x5f, 0x31, 0x3a, 0x30, 0x00, 0x02, 0x00, 0x00, 0x00, 
  0x01, 0x00, 0x00, 0x00, 0x01, 0x00, 0x00, 0x00, 0xe2, 0xfa, 0xff, 0xff, 
  0x00, 0x00, 0x00, 0x01, 0x18, 0x00, 0x00, 0x00, 0x20, 0x00, 0x00, 0x00, 
  0x40, 0x00, 0x00, 0x00, 0x07, 0x00, 0x00, 0x00, 0x00, 0x00, 0x00, 0x09, 
  0x58, 0x00, 0x00, 0x00, 0x02, 0x00, 0x00, 0x00, 0xff, 0xff, 0xff, 0xff, 
  0x01, 0x00, 0x00, 0x00, 0xcc, 0xfa, 0xff, 0xff, 0x08, 0x00, 0x00, 0x00, 
  0x14, 0x00, 0x00, 0x00, 0x01, 0x00, 0x00, 0x00, 0x1c, 0x00, 0x00, 0x00, 
  0x00, 0x00, 0x00, 0x00, 0x00, 0x00, 0x00, 0x00, 0x01, 0x00, 0x00, 0x00, 
  0x23, 0x0e, 0xc3, 0x3c, 0x1c, 0x00, 0x00, 0x00, 0x73, 0x65, 0x71, 0x75, 
  0x65, 0x6e, 0x74, 0x69, 0x61, 0x6c, 0x5f, 0x31, 0x2f, 0x6f, 0x75, 0x74, 
  0x70, 0x75, 0x74, 0x5f, 0x31, 0x2f, 0x4d, 0x61, 0x74, 0x4d, 0x75, 0x6c, 
  0x00, 0x00, 0x00, 0x00, 0x02, 0x00, 0x00, 0x00, 0x01, 0x00, 0x00, 0x00, 
  0x01, 0x00, 0x00, 0x00, 0x62, 0xfb, 0xff, 0xff, 0x00, 0x00, 0x00, 0x01, 
  0x18, 0x00, 0x00, 0x00, 0x20, 0x00, 0x00, 0x00, 0x3c, 0x00, 0x00, 0x00, 
  0x06, 0x00, 0x00, 0x00, 0x00, 0x00, 0x00, 0x09, 0x70, 0x00, 0x00, 0x00, 
  0x02, 0x00, 0x00, 0x00, 0xff, 0xff, 0xff, 0xff, 0x10, 0x00, 0x00, 0x00, 
  0x4c, 0xfb, 0xff, 0xff, 0x08, 0x00, 0x00, 0x00, 0x10, 0x00, 0x00, 0x00, 
  0x01, 0x00, 0x00, 0x00, 0x80, 0xff, 0xff, 0xff, 0xff, 0xff, 0xff, 0xff, 
  0x01, 0x00, 0x00, 0x00, 0x60, 0xfa, 0xbe, 0x3c, 0x39, 0x00, 0x00, 0x00, 
  0x73, 0x65, 0x71, 0x75, 0x65, 0x6e, 0x74, 0x69, 0x61, 0x6c, 0x5f, 0x31, 
  0x2f, 0x68, 0x69, 0x64, 0x64, 0x65, 0x6e, 0x32, 0x5f, 0x31, 0x2f, 0x4d, 
  0x61, 0x74, 0x4d, 0x75, 0x6c, 0x3b, 0x73, 0x65, 0x71, 0x75, 0x65, 0x6e, 
  0x74, 0x69, 0x61, 0x6c, 0x5f, 0x31, 0x2f, 0x68, 0x69, 0x64, 0x64, 0x65, 
  0x6e, 0x32, 0x5f, 0x31, 0x2f, 0x52, 0x65, 0x6c, 0x75, 0x00, 0x00, 0x00, 
  0x02, 0x00, 0x00, 0x00, 0x01, 0x00, 0x00, 0x00, 0x10, 0x00, 0x00, 0x00, 
  0xfa, 0xfb, 0xff, 0xff, 0x00, 0x00, 0x00, 0x01, 0x18, 0x00, 0x00, 0x00, 
  0x20, 0x00, 0x00, 0x00, 0x3c, 0x00, 0x00, 0x00, 0x05, 0x00, 0x00, 0x00, 
  0x00, 0x00, 0x00, 0x09, 0x70, 0x00, 0x00, 0x00, 0x02, 0x00, 0x00, 0x00, 
  0xff, 0xff, 0xff, 0xff, 0x20, 0x00, 0x00, 0x00, 0xe4, 0xfb, 0xff, 0xff, 
  0x08, 0x00, 0x00, 0x00, 0x10, 0x00, 0x00, 0x00, 0x01, 0x00, 0x00, 0x00, 
  0x80, 0xff, 0xff, 0xff, 0xff, 0xff, 0xff, 0xff, 0x01, 0x00, 0x00, 0x00, 
  0xb3, 0x35, 0xe7, 0x3c, 0x39, 0x00, 0x00, 0x00, 0x73, 0x65, 0x71, 0x75, 
  0x65, 0x6e, 0x74, 0x69, 0x61, 0x6c, 0x5f, 0x31, 0x2f, 0x68, 0x69, 0x64, 
  0x64, 0x65, 0x6e, 0x31, 0x5f, 0x31, 0x2f, 0x4d, 0x61, 0x74, 0x4d, 0x75, 
  0x6c, 0x3b, 0x73, 0x65, 0x71, 0x75, 0x65, 0x6e, 0x74, 0x69, 0x61, 0x6c, 
  0x5f, 0x31, 0x2f, 0x68, 0x69, 0x64, 0x64, 0x65, 0x6e, 0x31, 0x5f, 0x31, 
  0x2f, 0x52, 0x65, 0x6c, 0x75, 0x00, 0x00, 0x00, 0x02, 0x00, 0x00, 0x00, 
  0x01, 0x00, 0x00, 0x00, 0x20, 0x00, 0x00, 0x00, 0x0e, 0xfd, 0xff, 0xff, 
  0x00, 0x00, 0x00, 0x01, 0x14, 0x00, 0x00, 0x00, 0xa8, 0x01, 0x00, 0x00, 
  0x04, 0x00, 0x00, 0x00, 0x00, 0x00, 0x00, 0x09, 0xb4, 0x01, 0x00, 0x00, 
  0x6c, 0xfc, 0xff, 0xff, 0x08, 0x00, 0x00, 0x00, 0x0c, 0x01, 0x00, 0x00, 
  0x20, 0x00, 0x00, 0x00, 0x00, 0x00, 0x00, 0x00, 0x00, 0x00, 0x00, 0x00, 
  0x00, 0x00, 0x00, 0x00, 0x00, 0x00, 0x00, 0x00, 0x00, 0x00, 0x00, 0x00, 
  0x00, 0x00, 0x00, 0x00, 0x00, 0x00, 0x00, 0x00, 0x00, 0x00, 0x00, 0x00, 
  0x00, 0x00, 0x00, 0x00, 0x00, 0x00, 0x00, 0x00, 0x00, 0x00, 0x00, 0x00, 
  0x00, 0x00, 0x00, 0x00, 0x00, 0x00, 0x00, 0x00, 0x00, 0x00, 0x00, 0x00, 
  0x00, 0x00, 0x00, 0x00, 0x00, 0x00, 0x00, 0x00, 0x00, 0x00, 0x00, 0x00, 
  0x00, 0x00, 0x00, 0x00, 0x00, 0x00, 0x00, 0x00, 0x00, 0x00, 0x00, 0x00, 
  0x00, 0x00, 0x00, 0x00, 0x00, 0x00, 0x00, 0x00, 0x00, 0x00, 0x00, 0x00, 
  0x00, 0x00, 0x00, 0x00, 0x00, 0x00, 0x00, 0x00, 0x00, 0x00, 0x00, 0x00, 
  0x00, 0x00, 0x00, 0x00, 0x00, 0x00, 0x00, 0x00, 0x00, 0x00, 0x00, 0x00, 
  0x00, 0x00, 0x00, 0x00, 0x00, 0x00, 0x00, 0x00, 0x00, 0x00, 0x00, 0x00, 
  0x00, 0x00, 0x00, 0x00, 0x00, 0x00, 0x00, 0x00, 0x00, 0x00, 0x00, 0x00, 
  0x00, 0x00, 0x00, 0x00, 0x00, 0x00, 0x00, 0x00, 0x00, 0x00, 0x00, 0x00, 
  0x00, 0x00, 0x00, 0x00, 0x00, 0x00, 0x00, 0x00, 0x00, 0x00, 0x00, 0x00, 
  0x00, 0x00, 0x00, 0x00, 0x00, 0x00, 0x00, 0x00, 0x00, 0x00, 0x00, 0x00, 
  0x00, 0x00, 0x00, 0x00, 0x00, 0x00, 0x00, 0x00, 0x00, 0x00, 0x00, 0x00, 
  0x00, 0x00, 0x00, 0x00, 0x00, 0x00, 0x00, 0x00, 0x00, 0x00, 0x00, 0x00, 
  0x00, 0x00, 0x00, 0x00, 0x00, 0x00, 0x00, 0x00, 0x00, 0x00, 0x00, 0x00, 
  0x00, 0x00, 0x00, 0x00, 0x00, 0x00, 0x00, 0x00, 0x00, 0x00, 0x00, 0x00, 
  0x00, 0x00, 0x00, 0x00, 0x00, 0x00, 0x00, 0x00, 0x00, 0x00, 0x00, 0x00, 
  0x00, 0x00, 0x00, 0x00, 0x00, 0x00, 0x00, 0x00, 0x00, 0x00, 0x00, 0x00, 
  0x00, 0x00, 0x00, 0x00, 0x00, 0x00, 0x00, 0x00, 0x00, 0x00, 0x00, 0x00, 
  0x20, 0x00, 0x00, 0x00, 0xaf, 0x51, 0xe0, 0x3a, 0x00, 0x34, 0xe0, 0x3a, 
  0x14, 0xa0, 0xde, 0x3a, 0x37, 0x23, 0xdf, 0x3a, 0x05, 0x9d, 0xdf, 0x3a, 
  0xc8, 0xfb, 0xdc, 0x3a, 0xdc, 0xff, 0xdf, 0x3a, 0xe5, 0xca, 0xde, 0x3a, 
  0x77, 0x09, 0xdc, 0x3a, 0x5d, 0xc0, 0xdb, 0x3a, 0x43, 0x71, 0xdf, 0x3a, 
  0xde, 0x45, 0xde, 0x3a, 0x0e, 0xcf, 0xdb, 0x3a, 0x47, 0x64, 0xde, 0x3a, 
  0x3c, 0x43, 0xe0, 0x3a, 0x68, 0x01, 0xde, 0x3a, 0x1c, 0xfa, 0xdf, 0x3a, 
  0x79, 0x2f, 0xdf, 0x3a, 0x8f, 0xd0, 0xde, 0x3a, 0xf0, 0x1e, 0xde, 0x3a, 
  0x24, 0x16, 0xdf, 0x3a, 0x28, 0x9b, 0xdc, 0x3a, 0xbe, 0x06, 0xdb, 0x3a, 
  0xb3, 0xf0, 0xdd, 0x3a, 0x02, 0x09, 0xe0, 0x3a, 0xad, 0x50, 0xdf, 0x3a, 
  0x65, 0x6e, 0xdd, 0x3a, 0x32, 0x9b, 0xdd, 0x3a, 0xab, 0xce, 0xdc, 0x3a, 
  0xad, 0x14, 0xdc, 0x3a, 0x5f, 0xa6, 0xdf, 0x3a, 0x44, 0xba, 0xdf, 0x3a, 
  0x12, 0x00, 0x00, 0x00, 0x74, 0x66, 0x6c, 0x2e, 0x70, 0x73, 0x65, 0x75, 
  0x64, 0x6f, 0x5f, 0x71, 0x63, 0x6f, 0x6e, 0x73, 0x74, 0x32, 0x00, 0x00, 
  0x02, 0x00, 0x00, 0x00, 0x20, 0x00, 0x00, 0x00, 0x5f, 0x00, 0x00, 0x00, 
  0xe6, 0xfe, 0xff, 0xff, 0x00, 0x00, 0x00, 0x01, 0x14, 0x00, 0x00, 0x00, 
  0xe8, 0x00, 0x00, 0x00, 0x03, 0x00, 0x00, 0x00, 0x00, 0x00, 0x00, 0x09, 
  0xf4, 0x00, 0x00, 0x00, 0x44, 0xfe, 0xff, 0xff, 0x08, 0x00, 0x00, 0x00, 
  0x8c, 0x00, 0x00, 0x00, 0x10, 0x00, 0x00, 0x00, 0x00, 0x00, 0x00, 0x00, 
  0x00, 0x00, 0x00, 0x00, 0x00, 0x00, 0x00, 0x00, 0x00, 0x00, 0x00, 0x00, 
  0x00, 0x00, 0x00, 0x00, 0x00, 0x00, 0x00, 0x00, 0x00, 0x00, 0x00, 0x00, 
  0x00, 0x00, 0x00, 0x00, 0x00, 0x00, 0x00, 0x00, 0x00, 0x00, 0x00, 0x00, 
  0x00, 0x00, 0x00, 0x00, 0x00, 0x00, 0x00, 0x00, 0x00, 0x00, 0x00, 0x00, 
  0x00, 0x00, 0x00, 0x00, 0x00, 0x00, 0x00, 0x00, 0x00, 0x00, 0x00, 0x00, 
  0x00, 0x00, 0x00, 0x00, 0x00, 0x00, 0x00, 0x00, 0x00, 0x00, 0x00, 0x00, 
  0x00, 0x00, 0x00, 0x00, 0x00, 0x00, 0x00, 0x00, 0x00, 0x00, 0x00, 0x00, 
  0x00, 0x00, 0x00, 0x00, 0x00, 0x00, 0x00, 0x00, 0x00, 0x00, 0x00, 0x00, 
  0x00, 0x00, 0x00, 0x00, 0x00, 0x00, 0x00, 0x00, 0x00, 0x00, 0x00, 0x00, 
  0x00, 0x00, 0x00, 0x00, 0x00, 0x00, 0x00, 0x00, 0x00, 0x00, 0x00, 0x00, 
  0x00, 0x00, 0x00, 0x00, 0x00, 0x00, 0x00, 0x00, 0x10, 0x00, 0x00, 0x00, 
  0x0f, 0xa3, 0x32, 0x3b, 0xeb, 0x07, 0x2e, 0x3b, 0xcd, 0xdd, 0x34, 0x3b, 
  0x98, 0xdb, 0x32, 0x3b, 0x58, 0x90, 0x31, 0x3b, 0x2f, 0x76, 0x33, 0x3b, 
  0x92, 0x2a, 0x30, 0x3b, 0x3d, 0xe0, 0x2b, 0x3b, 0xe1, 0xd2, 0x35, 0x3b, 
  0x68, 0x3b, 0x25, 0x3b, 0x48, 0xc3, 0x33, 0x3b, 0xb8, 0x22, 0x34, 0x3b, 
  0x8a, 0xf1, 0x2d, 0x3b, 0xba, 0xd0, 0x2f, 0x3b, 0xb2, 0x52, 0x31, 0x3b, 
  0x37, 0xb3, 0x1b, 0x3b, 0x12, 0x00, 0x00, 0x00, 0x74, 0x66, 0x6c, 0x2e, 
  0x70, 0x73, 0x65, 0x75, 0x64, 0x6f, 0x5f, 0x71, 0x63, 0x6f, 0x6e, 0x73, 
  0x74, 0x31, 0x00, 0x00, 0x02, 0x00, 0x00, 0x00, 0x10, 0x00, 0x00, 0x00, 
  0x20, 0x00, 0x00, 0x00, 0x00, 0x00, 0x16, 0x00, 0x1c, 0x00, 0x18, 0x00, 
  0x17, 0x00, 0x10, 0x00, 0x0c, 0x00, 0x08, 0x00, 0x00, 0x00, 0x00, 0x00, 
  0x00, 0x00, 0x07, 0x00, 0x16, 0x00, 0x00, 0x00, 0x00, 0x00, 0x00, 0x01, 
  0x14, 0x00, 0x00, 0x00, 0x34, 0x00, 0x00, 0x00, 0x02, 0x00, 0x00, 0x00, 
  0x00, 0x00, 0x00, 0x09, 0x40, 0x00, 0x00, 0x00, 0x74, 0xff, 0xff, 0xff, 
  0x08, 0x00, 0x00, 0x00, 0x14, 0x00, 0x00, 0x00, 0x01, 0x00, 0x00, 0x00, 
  0x00, 0x00, 0x00, 0x00, 0x00, 0x00, 0x00, 0x00, 0x00, 0x00, 0x00, 0x00, 
  0x01, 0x00, 0x00, 0x00, 0xcc, 0xa6, 0x7d, 0x3b, 0x11, 0x00, 0x00, 0x00, 
  0x74, 0x66, 0x6c, 0x2e, 0x70, 0x73, 0x65, 0x75, 0x64, 0x6f, 0x5f, 0x71, 
  0x63, 0x6f, 0x6e, 0x73, 0x74, 0x00, 0x00, 0x00, 0x02, 0x00, 0x00, 0x00, 
  0x01, 0x00, 0x00, 0x00, 0x10, 0x00, 0x00, 0x00, 0x00, 0x00, 0x16, 0x00, 
  0x20, 0x00, 0x1c, 0x00, 0x1b, 0x00, 0x14, 0x00, 0x10, 0x00, 0x0c, 0x00, 
  0x00, 0x00, 0x00, 0x00, 0x08, 0x00, 0x07, 0x00, 0x16, 0x00, 0x00, 0x00, 
  0x00, 0x00, 0x00, 0x01, 0x18, 0x00, 0x00, 0x00, 0x2c, 0x00, 0x00, 0x00, 
  0x48, 0x00, 0x00, 0x00, 0x01, 0x00, 0x00, 0x00, 0x00, 0x00, 0x00, 0x09, 
  0x58, 0x00, 0x00, 0x00, 0x02, 0x00, 0x00, 0x00, 0xff, 0xff, 0xff, 0xff, 
  0x5f, 0x00, 0x00, 0x00, 0x0c, 0x00, 0x0c, 0x00, 0x00, 0x00, 0x00, 0x00, 
  0x08, 0x00, 0x04, 0x00, 0x0c, 0x00, 0x00, 0x00, 0x08, 0x00, 0x00, 0x00, 
  0x10, 0x00, 0x00, 0x00, 0x01, 0x00, 0x00, 0x00, 0xff, 0xff, 0xff, 0xff, 
  0xff, 0xff, 0xff, 0xff, 0x01, 0x00, 0x00, 0x00, 0x40, 0xb4, 0xc0, 0x3c, 
  0x17, 0x00, 0x00, 0x00, 0x73, 0x65, 0x72, 0x76, 0x69, 0x6e, 0x67, 0x5f, 
  0x64, 0x65, 0x66, 0x61, 0x75, 0x6c, 0x74, 0x5f, 0x69, 0x6e, 0x70, 0x75, 
  0x74, 0x3a, 0x30, 0x00, 0x02, 0x00, 0x00, 0x00, 0x01, 0x00, 0x00, 0x00, 
  0x5f, 0x00, 0x00, 0x00, 0x02, 0x00, 0x00, 0x00, 0x24, 0x00, 0x00, 0x00, 
  0x04, 0x00, 0x00, 0x00, 0xf0, 0xff, 0xff, 0xff, 0x0e, 0x00, 0x00, 0x00, 
  0x02, 0x00, 0x00, 0x00, 0x00, 0x00, 0x00, 0x0e, 0x0c, 0x00, 0x10, 0x00, 
  0x0f, 0x00, 0x00, 0x00, 0x08, 0x00, 0x04, 0x00, 0x0c, 0x00, 0x00, 0x00, 
  0x09, 0x00, 0x00, 0x00, 0x04, 0x00, 0x00, 0x00, 0x00, 0x00, 0x00, 0x09
};

#endif // MODEL_DATA_H
