#ifndef MODEL_DATA_H
#define MODEL_DATA_H

const unsigned int model_data_len = 6168;
const unsigned char model_data[] = {
  0x20, 0x00, 0x00, 0x00, 0x54, 0x46, 0x4c, 0x33, 0x00, 0x00, 0x00, 0x00, 
  0x14, 0x00, 0x20, 0x00, 0x1c, 0x00, 0x18, 0x00, 0x14, 0x00, 0x10, 0x00, 
  0x0c, 0x00, 0x00, 0x00, 0x08, 0x00, 0x04, 0x00, 0x14, 0x00, 0x00, 0x00, 
  0x1c, 0x00, 0x00, 0x00, 0x84, 0x00, 0x00, 0x00, 0x04, 0x01, 0x00, 0x00, 
  0x0c, 0x10, 0x00, 0x00, 0x1c, 0x10, 0x00, 0x00, 0xa8, 0x17, 0x00, 0x00, 
  0x03, 0x00, 0x00, 0x00, 0x01, 0x00, 0x00, 0x00, 0x04, 0x00, 0x00, 0x00, 
  0xa6, 0xef, 0xff, 0xff, 0x0c, 0x00, 0x00, 0x00, 0x1c, 0x00, 0x00, 0x00, 
  0x3c, 0x00, 0x00, 0x00, 0x0f, 0x00, 0x00, 0x00, 0x73, 0x65, 0x72, 0x76, 
  0x69, 0x6e, 0x67, 0x5f, 0x64, 0x65, 0x66, 0x61, 0x75, 0x6c, 0x74, 0x00, 
  0x01, 0x00, 0x00, 0x00, 0x04, 0x00, 0x00, 0x00, 0x70, 0xff, 0xff, 0xff, 
  0x07, 0x00, 0x00, 0x00, 0x04, 0x00, 0x00, 0x00, 0x08, 0x00, 0x00, 0x00, 
  0x6f, 0x75, 0x74, 0x70, 0x75, 0x74, 0x5f, 0x30, 0x00, 0x00, 0x00, 0x00, 
  0x01, 0x00, 0x00, 0x00, 0x04, 0x00, 0x00, 0x00, 0x86, 0xf0, 0xff, 0xff, 
  0x04, 0x00, 0x00, 0x00, 0x05, 0x00, 0x00, 0x00, 0x69, 0x6e, 0x70, 0x75, 
  0x74, 0x00, 0x00, 0x00, 0x03, 0x00, 0x00, 0x00, 0x5c, 0x00, 0x00, 0x00, 
  0x2c, 0x00, 0x00, 0x00, 0x04, 0x00, 0x00, 0x00, 0xb8, 0xff, 0xff, 0xff, 
  0x0b, 0x00, 0x00, 0x00, 0x04, 0x00, 0x00, 0x00, 0x13, 0x00, 0x00, 0x00, 
  0x43, 0x4f, 0x4e, 0x56, 0x45, 0x52, 0x53, 0x49, 0x4f, 0x4e, 0x5f, 0x4d, 
  0x45, 0x54, 0x41, 0x44, 0x41, 0x54, 0x41, 0x00, 0xdc, 0xff, 0xff, 0xff, 
  0x0a, 0x00, 0x00, 0x00, 0x04, 0x00, 0x00, 0x00, 0x13, 0x00, 0x00, 0x00, 
  0x6d, 0x69, 0x6e, 0x5f, 0x72, 0x75, 0x6e, 0x74, 0x69, 0x6d, 0x65, 0x5f, 
  0x76, 0x65, 0x72, 0x73, 0x69, 0x6f, 0x6e, 0x00, 0x08, 0x00, 0x0c, 0x00, 
  0x08, 0x00, 0x04, 0x00, 0x08, 0x00, 0x00, 0x00, 0x09, 0x00, 0x00, 0x00, 
  0x04, 0x00, 0x00, 0x00, 0x13, 0x00, 0x00, 0x00, 0x6d, 0x69, 0x6e, 0x5f, 
  0x72, 0x75, 0x6e, 0x74, 0x69, 0x6d, 0x65, 0x5f, 0x76, 0x65, 0x72, 0x73, 
  0x69, 0x6f, 0x6e, 0x00, 0x0c, 0x00, 0x00, 0x00, 0x04, 0x0f, 0x00, 0x00, 
  0xfc, 0x0e, 0x00, 0x00, 0xdc, 0x0e, 0x00, 0x00, 0xc4, 0x0c, 0x00, 0x00, 
  0xd4, 0x00, 0x00, 0x00, 0xcc, 0x00, 0x00, 0x00, 0xc4, 0x00, 0x00, 0x00, 
  0xbc, 0x00, 0x00, 0x00, 0xb4, 0x00, 0x00, 0x00, 0x94, 0x00, 0x00, 0x00, 
  0x74, 0x00, 0x00, 0x00, 0x04, 0x00, 0x00, 0x00, 0x52, 0xf1, 0xff, 0xff, 
  0x04, 0x00, 0x00, 0x00, 0x60, 0x00, 0x00, 0x00, 0x0c, 0x00, 0x00, 0x00, 
  0x08, 0x00, 0x0e, 0x00, 0x08, 0x00, 0x04, 0x00, 0x08, 0x00, 0x00, 0x00, 
  0x10, 0x00, 0x00, 0x00, 0x28, 0x00, 0x00, 0x00, 0x00, 0x00, 0x06, 0x00, 
  0x08, 0x00, 0x04, 0x00, 0x06, 0x00, 0x00, 0x00, 0x04, 0x00, 0x00, 0x00, 
  0x01, 0x00, 0x00, 0x00, 0xeb, 0x03, 0x00, 0x00, 0x0c, 0x00, 0x18, 0x00, 
  0x14, 0x00, 0x10, 0x00, 0x0c, 0x00, 0x04, 0x00, 0x0c, 0x00, 0x00, 0x00, 
  0xba, 0x35, 0x8f, 0xc9, 0x5a, 0x7a, 0x8c, 0x1a, 0x02, 0x00, 0x00, 0x00, 
  0x02, 0x00, 0x00, 0x00, 0x04, 0x00, 0x00, 0x00, 0x06, 0x00, 0x00, 0x00, 
  0x32, 0x2e, 0x31, 0x39, 0x2e, 0x30, 0x00, 0x00, 0xbe, 0xf1, 0xff, 0xff, 
  0x04, 0x00, 0x00, 0x00, 0x10, 0x00, 0x00, 0x00, 0x00, 0x00, 0x00, 0x00, 
  0x00, 0x00, 0x00, 0x00, 0x00, 0x00, 0x00, 0x00, 0x00, 0x00, 0x00, 0x00, 
  0xda, 0xf1, 0xff, 0xff, 0x04, 0x00, 0x00, 0x00, 0x10, 0x00, 0x00, 0x00, 
  0x31, 0x2e, 0x31, 0x34, 0x2e, 0x30, 0x00, 0x00, 0x00, 0x00, 0x00, 0x00, 
  0x00, 0x00, 0x00, 0x00, 0x28, 0xf1, 0xff, 0xff, 0x2c, 0xf1, 0xff, 0xff, 
  0x30, 0xf1, 0xff, 0xff, 0x34, 0xf1, 0xff, 0xff, 0x06, 0xf2, 0xff, 0xff, 
  0x04, 0x00, 0x00, 0x00, 0xe0, 0x0b, 0x00, 0x00, 0x32, 0x65, 0x98, 0x23, 
  0x89, 0x25, 0xb8, 0x0d, 0x85, 0x25, 0xc4, 0x5f, 0xca, 0xea, 0xfa, 0xa0, 
  0x6a, 0xa9, 0xbe, 0xd2, 0xdd, 0x17, 0xce, 0xef, 0x2c, 0xa9, 0x88, 0x59, 
  0x48, 0xf2, 0x25, 0x35, 0x10, 0xc5, 0xbf, 0x14, 0x23, 0x27, 0xf5, 0x64, 
  0x7b, 0xcb, 0x5e, 0xe4, 0xb2, 0x46, 0x2f, 0x14, 0x0b, 0xaf, 0xd3, 0x10, 
  0x8e, 0xbb, 0x82, 0x9e, 0xcd, 0x10, 0xd9, 0x7e, 0x92, 0x74, 0xc4, 0xdd, 
  0x63, 0x5e, 0xe2, 0xd2, 0x12, 0x7b, 0xe3, 0xd5, 0xf0, 0x85, 0x46, 0xa5, 
  0xe5, 0xd3, 0x81, 0x1f, 0x0a, 0x19, 0x10, 0x6a, 0xe9, 0x57, 0x09, 0xb7, 
  0x4c, 0x34, 0xf1, 0x3e, 0xb8, 0x05, 0x09, 0x5f, 0x3e, 0x92, 0x7a, 0x07, 
  0xce, 0xce, 0xd0, 0xbd, 0x7b, 0x55, 0xf8, 0x71, 0x55, 0xdd, 0x48, 0x3e, 
  0x1a, 0xd4, 0x12, 0x7b, 0x9c, 0x90, 0xa8, 0x55, 0x07, 0x65, 0x23, 0x90, 
  0x3c, 0x76, 0x43, 0xdf, 0x81, 0x7b, 0xc1, 0xdd, 0x4b, 0x00, 0xf7, 0x54, 
  0xa8, 0xff, 0x8b, 0x35, 0x5b, 0x2e, 0x3f, 0x14, 0x6e, 0xe3, 0x0b, 0xc9, 
  0x0a, 0x05, 0x0c, 0x33, 0x92, 0x01, 0xb2, 0xa6, 0x31, 0x8d, 0x28, 0xf2, 
  0xb4, 0x0b, 0x71, 0xda, 0xd3, 0xc5, 0x50, 0x63, 0xe7, 0x41, 0x66, 0x1b, 
  0xd4, 0x5f, 0x57, 0x51, 0x74, 0xab, 0xf2, 0x92, 0xc0, 0xbd, 0xed, 0x42, 
  0x65, 0x0a, 0x7e, 0xb1, 0x57, 0x8b, 0x84, 0xee, 0xc9, 0x56, 0x0d, 0xdf, 
  0xc4, 0x6d, 0x6b, 0x99, 0xdf, 0xc3, 0xed, 0xa9, 0xc0, 0x41, 0x3e, 0x42, 
  0x07, 0xac, 0x12, 0xb5, 0x66, 0x39, 0xa3, 0xcb, 0x1c, 0x34, 0x2a, 0x0c, 
  0x93, 0x4c, 0x88, 0x48, 0xf3, 0xaf, 0x64, 0x92, 0xec, 0x19, 0x30, 0x45, 
  0xf5, 0x61, 0x69, 0x63, 0x7f, 0x41, 0x82, 0x60, 0x7f, 0x15, 0x2d, 0x41, 
  0xb0, 0x4c, 0xec, 0x04, 0x38, 0x85, 0x7c, 0xe9, 0x24, 0x03, 0xee, 0xbd, 
  0xf0, 0xc3, 0x8f, 0x1a, 0xac, 0xb0, 0xb6, 0x2e, 0xcb, 0x4f, 0x8d, 0x5f, 
  0xe0, 0x38, 0xab, 0x23, 0xa9, 0xab, 0xb5, 0xa9, 0x2b, 0x3d, 0x7a, 0xa0, 
  0x57, 0xce, 0x21, 0xa4, 0xc7, 0xa0, 0x20, 0xe7, 0x39, 0xdf, 0x48, 0x46, 
  0x44, 0x0e, 0x69, 0x2f, 0xfe, 0x1a, 0x98, 0x2e, 0x31, 0x37, 0x50, 0x04, 
  0xdc, 0x01, 0x4f, 0x47, 0x73, 0x10, 0x68, 0x9d, 0x0a, 0x92, 0x6b, 0x3f, 
  0x09, 0x90, 0x23, 0x56, 0xc3, 0x77, 0x50, 0xd8, 0xfe, 0xc6, 0xc8, 0x98, 
  0xdc, 0x13, 0xad, 0x08, 0xc0, 0xef, 0xf5, 0xd8, 0x00, 0xdc, 0xae, 0x40, 
  0xb1, 0x26, 0x21, 0xa3, 0x00, 0x89, 0xa4, 0x94, 0x38, 0x27, 0x3c, 0xf7, 
  0x25, 0x57, 0x5b, 0x7e, 0x13, 0xfa, 0x62, 0xc3, 0x3b, 0x17, 0x2e, 0xed, 
  0x9a, 0xcf, 0x87, 0xc4, 0x58, 0x18, 0xa6, 0x84, 0x7e, 0x81, 0x3c, 0x78, 
  0xb2, 0xa1, 0x34, 0xac, 0x68, 0x33, 0x4b, 0x94, 0xc8, 0x6d, 0x31, 0x90, 
  0x4f, 0xf9, 0xe0, 0x68, 0x16, 0x7f, 0x02, 0x7a, 0x01, 0xd5, 0xb2, 0x54, 
  0x13, 0xd2, 0x7c, 0xf2, 0x2f, 0x05, 0xd5, 0x71, 0x09, 0x9c, 0xfc, 0xd1, 
  0xfc, 0x8f, 0x9f, 0xa3, 0xc4, 0x35, 0x09, 0x0d, 0x6d, 0x17, 0x11, 0xd0, 
  0x3a, 0x8f, 0x5d, 0x64, 0x95, 0x75, 0x6e, 0x43, 0x62, 0x40, 0x3e, 0x27, 
  0x7c, 0xf0, 0x09, 0x49, 0x1a, 0xea, 0x34, 0xf0, 0x25, 0xf5, 0xd5, 0x05, 
  0x1e, 0x5c, 0xc5, 0xfb, 0x64, 0x99, 0x95, 0x5d, 0xdf, 0x2a, 0x04, 0x68, 
  0x71, 0xcc, 0x73, 0xd3, 0x89, 0x03, 0x89, 0x7a, 0x3a, 0xb1, 0x45, 0x19, 
  0x65, 0xcf, 0x0e, 0x04, 0x4c, 0xc0, 0x95, 0xed, 0x8d, 0x87, 0x07, 0x2a, 
  0xb2, 0x0f, 0xe9, 0x00, 0xf4, 0x60, 0x04, 0xdb, 0xbf, 0x43, 0x9e, 0x01, 
  0x24, 0x47, 0x1e, 0xa5, 0x67, 0xd7, 0xc7, 0x54, 0x81, 0x09, 0x1b, 0xce, 
  0x37, 0x8e, 0x88, 0x81, 0xf9, 0x1a, 0xb7, 0x45, 0xf5, 0xfe, 0xb6, 0xa5, 
  0xe1, 0xd6, 0xa7, 0x63, 0x2d, 0x70, 0x40, 0x1b, 0xe8, 0x19, 0x78, 0xe3, 
  0x71, 0x37, 0xd3, 0x9e, 0x0c, 0xfa, 0xab, 0x8e, 0x1b, 0x3d, 0xc8, 0x46, 
  0xc3, 0x0a, 0xa0, 0xb0, 0xb0, 0xe9, 0x0f, 0x9a, 0x03, 0xd2, 0x28, 0x79, 
  0xad, 0xdf, 0x41, 0x18, 0xa8, 0xde, 0x82, 0x28, 0xa6, 0x89, 0xa8, 0x71, 
  0x9a, 0x96, 0xc3, 0x50, 0x71, 0x5b, 0xf6, 0x84, 0xab, 0xf4, 0xb1, 0xbe, 
  0x9b, 0x98, 0x7c, 0xda, 0xcc, 0xf9, 0x07, 0x46, 0xe6, 0x86, 0x0d, 0x2a, 
  0x7e, 0xec, 0x5e, 0x6d, 0x89, 0xb9, 0x45, 0xe8, 0xb7, 0x2b, 0xef, 0xb4, 
  0x93, 0xd9, 0xd8, 0xcb, 0x6e, 0x6f, 0xc0, 0x3e, 0x3b, 0x09, 0x1a, 0x7f, 
  0x57, 0x7e, 0x55, 0xb1, 0x15, 0x6a, 0x02, 0xf2, 0xb5, 0xf2, 0xd3, 0xa1, 
  0x7e, 0x9e, 0x8f, 0x1e, 0x20, 0x79, 0xda, 0x63, 0x53, 0x2d, 0x72, 0x00, 
  0x7a, 0x04, 0x22, 0x04, 0x82, 0xa1, 0x75, 0xba, 0x7d, 0x71, 0xdb, 0xd2, 
  0x6d, 0x48, 0x43, 0xf0, 0x7b, 0x89, 0xc8, 0x7a, 0xd3, 0x13, 0xa4, 0x03, 
  0x4c, 0x93, 0x12, 0x02, 0x67, 0xae, 0xeb, 0xec, 0x88, 0xa7, 0xbc, 0xc0, 
  0x06, 0x26, 0xcb, 0x8e, 0x2a, 0x34, 0xeb, 0xa9, 0x1d, 0x1a, 0x4a, 0xca, 
  0x2c, 0x4d, 0xbd, 0x51, 0x3f, 0x16, 0x2d, 0xd9, 0x7b, 0xf3, 0x15, 0xb9, 
  0x92, 0xd3, 0x0a, 0x95, 0x4f, 0xa5, 0x4e, 0xec, 0x53, 0x7f, 0x35, 0xa2, 
  0xc9, 0x59, 0x2c, 0xe8, 0x4a, 0x54, 0x20, 0x8d, 0xc7, 0xe9, 0x87, 0x0a, 
  0x09, 0x6a, 0x6e, 0x89, 0x68, 0x75, 0xf6, 0x1d, 0xcb, 0x18, 0x44, 0xe6, 
  0x7b, 0xef, 0xe2, 0xa6, 0xe9, 0xca, 0xe4, 0x50, 0x2b, 0x40, 0x0b, 0xaf, 
  0xbf, 0x64, 0x04, 0x5c, 0x55, 0x4a, 0x46, 0x29, 0x23, 0xd1, 0x95, 0xa2, 
  0x4f, 0x60, 0x87, 0x35, 0x5e, 0xd2, 0xf9, 0x7a, 0xec, 0xfa, 0x4c, 0x93, 
  0xd3, 0x92, 0x47, 0xef, 0xc2, 0xf8, 0xf9, 0x88, 0x27, 0x1b, 0x6a, 0x22, 
  0x9e, 0x5e, 0x14, 0x2b, 0xce, 0x07, 0x1f, 0x53, 0xcd, 0xc5, 0x74, 0x24, 
  0xec, 0x48, 0x95, 0x62, 0xcc, 0xd8, 0xf7, 0xc9, 0xe8, 0xfc, 0xf9, 0xd4, 
  0x93, 0x4c, 0x57, 0x9f, 0x8c, 0xce, 0xf4, 0x21, 0xb6, 0xbf, 0x17, 0xb0, 
  0xf4, 0x8d, 0x19, 0x5f, 0xb3, 0xe5, 0xed, 0xf7, 0x43, 0xc3, 0x06, 0xb6, 
  0x61, 0xfb, 0xca, 0xa0, 0x2d, 0x09, 0xfd, 0x8a, 0x0a, 0x06, 0x1c, 0x63, 
  0xaf, 0x78, 0xfc, 0xbe, 0xf0, 0x7f, 0x50, 0xd6, 0xab, 0x88, 0xda, 0x86, 
  0xc9, 0x8e, 0x66, 0x99, 0xd4, 0xf7, 0x85, 0xee, 0x98, 0xed, 0xb3, 0xd6, 
  0x1f, 0x64, 0xfc, 0x4c, 0x8b, 0x73, 0x89, 0x58, 0x3d, 0x05, 0x2c, 0xb1, 
  0x26, 0x7e, 0x2d, 0x9e, 0x84, 0x7f, 0x74, 0x86, 0x62, 0x0f, 0x0b, 0x13, 
  0xa0, 0x12, 0xce, 0x2b, 0xa7, 0x02, 0xaa, 0x94, 0x1e, 0xea, 0x08, 0xef, 
  0x53, 0xd0, 0x18, 0xf1, 0x2b, 0xf5, 0x20, 0xde, 0x13, 0xf8, 0x07, 0xf8, 
  0xed, 0xb5, 0x66, 0xb1, 0x8d, 0x24, 0x48, 0xeb, 0x56, 0x45, 0xf0, 0x9c, 
  0x5e, 0x94, 0x72, 0x11, 0x9e, 0x1e, 0x4e, 0xd9, 0xaf, 0x3f, 0x1c, 0x45, 
  0x7e, 0x87, 0xfc, 0x23, 0x50, 0x0d, 0xfb, 0x2c, 0xc8, 0x76, 0xf1, 0x46, 
  0xa8, 0x07, 0xa9, 0x00, 0x92, 0xa9, 0x41, 0x43, 0xfe, 0x49, 0x08, 0x54, 
  0x3e, 0xf4, 0x6d, 0xa9, 0x8d, 0xc0, 0x63, 0x76, 0xec, 0x93, 0xbe, 0x8b, 
  0x31, 0xce, 0xae, 0xa5, 0xe1, 0x42, 0x3c, 0x5a, 0xa2, 0xf8, 0xf5, 0x6b, 
  0x1b, 0xd6, 0x0b, 0xa0, 0xee, 0x63, 0x2e, 0xa1, 0x4c, 0x3b, 0xd6, 0xe1, 
  0x1b, 0x04, 0xfe, 0x5c, 0x44, 0xfc, 0x8c, 0x52, 0xe4, 0x9e, 0xe0, 0xe4, 
  0x8a, 0x81, 0x44, 0xf0, 0x8b, 0x96, 0xe8, 0xc5, 0x2e, 0xea, 0x92, 0x83, 
  0xba, 0xef, 0xef, 0xc2, 0x76, 0xfc, 0x4a, 0x7f, 0x6a, 0x63, 0xd6, 0x4c, 
  0x03, 0x9d, 0xb2, 0x93, 0xfb, 0xd5, 0x21, 0x7d, 0x1e, 0x78, 0xd2, 0x9d, 
  0xcb, 0x7c, 0xb7, 0xb9, 0x2a, 0x36, 0x4a, 0x0f, 0x5d, 0x0b, 0x76, 0xc1, 
  0x1b, 0xd2, 0xdc, 0x71, 0x03, 0x68, 0x20, 0x9d, 0xaa, 0xd8, 0xac, 0x8f, 
  0x59, 0x20, 0x00, 0x3a, 0x9c, 0x0a, 0x4f, 0x18, 0x84, 0x0b, 0x52, 0xa0, 
  0x89, 0x21, 0xe9, 0xa7, 0xe0, 0x13, 0xe7, 0xae, 0xfa, 0xf8, 0xaf, 0x85, 
  0x87, 0x30, 0x18, 0xdd, 0x4c, 0x64, 0x30, 0x0e, 0xc1, 0x5a, 0x96, 0xc4, 
  0x2e, 0xfa, 0x37, 0x1a, 0x17, 0x14, 0xf1, 0xab, 0x38, 0x32, 0x82, 0xd8, 
  0x95, 0xe0, 0xee, 0xcc, 0x3d, 0x74, 0x9f, 0x43, 0xbc, 0xb3, 0xfe, 0x73, 
  0x20, 0x50, 0x81, 0xbd, 0x47, 0x8b, 0xc9, 0x92, 0xaa, 0x4d, 0x2d, 0x91, 
  0x3b, 0x33, 0xa0, 0x77, 0xbd, 0x34, 0x00, 0xe0, 0xe5, 0x68, 0x02, 0xb5, 
  0x4f, 0x31, 0x8c, 0x61, 0xeb, 0x37, 0x73, 0x95, 0x13, 0x3e, 0x2a, 0x38, 
  0x08, 0xee, 0x1f, 0xeb, 0x5c, 0xc0, 0x77, 0xc6, 0x0f, 0xc7, 0x71, 0x0c, 
  0x0b, 0xa3, 0xa7, 0xb6, 0x66, 0x5b, 0xa4, 0x15, 0x58, 0xda, 0x79, 0x1a, 
  0x32, 0x88, 0xd1, 0xcb, 0x2e, 0xea, 0x53, 0xb6, 0xc8, 0x44, 0x73, 0xb1, 
  0x75, 0xa0, 0xdc, 0x2b, 0xb2, 0xe7, 0x7f, 0xc4, 0x27, 0xf0, 0x74, 0xaa, 
  0xbd, 0xc4, 0x59, 0x40, 0xdb, 0xdc, 0x6a, 0x45, 0x32, 0xb7, 0x08, 0xf9, 
  0x2e, 0x42, 0x9d, 0xd6, 0xc4, 0x04, 0x79, 0xb9, 0x62, 0xaa, 0x92, 0xdc, 
  0x7b, 0x28, 0x58, 0xcf, 0xad, 0x33, 0xb1, 0x35, 0x31, 0xbe, 0x6b, 0xbd, 
  0xc3, 0x22, 0x1a, 0x1a, 0x5e, 0x88, 0x1b, 0xab, 0x2a, 0xa4, 0xb6, 0x76, 
  0xf2, 0x60, 0x5b, 0x71, 0xb5, 0x18, 0xcd, 0x88, 0x92, 0x79, 0x9a, 0xf8, 
  0x27, 0x1e, 0x29, 0xc7, 0xed, 0xb5, 0x8d, 0xd5, 0xff, 0xa8, 0x85, 0x7c, 
  0x42, 0xb3, 0xbe, 0xe8, 0x16, 0x4b, 0x4e, 0x3e, 0xdd, 0x7e, 0xfe, 0x81, 
  0x33, 0x1b, 0x7b, 0x7a, 0x2f, 0xc1, 0x32, 0x59, 0x30, 0xd1, 0x91, 0xc4, 
  0x02, 0x34, 0x02, 0x66, 0x96, 0x5d, 0x59, 0xb6, 0x63, 0x10, 0x83, 0x57, 
  0x54, 0xf6, 0xb1, 0x38, 0x2e, 0x4c, 0x91, 0xed, 0xb8, 0x14, 0x55, 0xf3, 
  0x20, 0x95, 0x7f, 0x7b, 0xd3, 0x13, 0xb8, 0xa2, 0xd4, 0xb2, 0x06, 0xbb, 
  0xf2, 0xf5, 0xe7, 0x46, 0x51, 0xe4, 0xc6, 0x8f, 0xf2, 0xfa, 0xae, 0x9a, 
  0xfc, 0xfe, 0xff, 0x44, 0xfc, 0xc3, 0x06, 0x66, 0x1e, 0x82, 0xef, 0xd0, 
  0x3e, 0xce, 0xec, 0x7f, 0xf1, 0x47, 0x26, 0x05, 0xc8, 0x16, 0xda, 0x83, 
  0xd7, 0xdc, 0x30, 0x8a, 0x89, 0x0f, 0x5c, 0xcc, 0xe1, 0xbf, 0x39, 0x3b, 
  0x08, 0x3f, 0x03, 0x01, 0x44, 0x4c, 0x22, 0x2e, 0xa9, 0x98, 0x4f, 0x3b, 
  0xc1, 0xe8, 0x84, 0x91, 0xe7, 0x3a, 0x0c, 0x1d, 0x06, 0x4c, 0xb0, 0xef, 
  0x97, 0xae, 0x72, 0xa4, 0xe7, 0x3c, 0x66, 0x7f, 0x89, 0x81, 0x55, 0x7c, 
  0x9b, 0x91, 0x6f, 0x04, 0x9a, 0x18, 0x05, 0x94, 0x2a, 0x4c, 0xd8, 0xcb, 
  0x57, 0x0b, 0xcb, 0x93, 0xd3, 0x58, 0xd9, 0x33, 0x9e, 0x1e, 0x6c, 0x66, 
  0x31, 0x0f, 0x82, 0x8e, 0xc9, 0x1f, 0x94, 0x22, 0x31, 0x8f, 0xa1, 0x86, 
  0x4e, 0xf3, 0x62, 0x90, 0xaa, 0x02, 0xe4, 0x2d, 0x15, 0x68, 0x0f, 0x58, 
  0xc4, 0x39, 0x53, 0x46, 0x87, 0x44, 0xff, 0x82, 0x99, 0x17, 0x34, 0x7c, 
  0x41, 0x52, 0x92, 0x50, 0x9a, 0xb4, 0x0f, 0xe1, 0xff, 0xb4, 0x15, 0x52, 
  0x1d, 0x7a, 0x77, 0xc2, 0xd0, 0x09, 0x2e, 0xa5, 0x88, 0x54, 0x09, 0x42, 
  0x86, 0xd9, 0xe5, 0x73, 0x7a, 0x40, 0xa0, 0xd7, 0xda, 0xc7, 0x6c, 0xd8, 
  0x4a, 0x67, 0x59, 0xc0, 0x33, 0xd1, 0x8a, 0x13, 0x94, 0x56, 0x61, 0x39, 
  0x6e, 0x7f, 0xf0, 0x76, 0x07, 0xfb, 0x9a, 0x88, 0x10, 0x39, 0xa1, 0x5e, 
  0xd4, 0xdf, 0xe6, 0xa2, 0x07, 0xa7, 0x94, 0x82, 0x72, 0xfa, 0x43, 0xee, 
  0x4d, 0x89, 0xf6, 0xf2, 0x03, 0x4e, 0x9f, 0xca, 0x6f, 0x37, 0xef, 0x4b, 
  0x5a, 0x0a, 0x90, 0x08, 0xc5, 0x83, 0xd4, 0xa9, 0xf5, 0x9a, 0xfc, 0x5a, 
  0xc8, 0xf0, 0xb0, 0x02, 0x38, 0x5d, 0x9d, 0xf7, 0x43, 0x7d, 0x32, 0x81, 
  0xb0, 0x6e, 0xe1, 0x56, 0x4b, 0x1b, 0x43, 0x8f, 0xb7, 0xed, 0x16, 0xbf, 
  0xf8, 0x28, 0x25, 0x01, 0x70, 0x56, 0xca, 0x98, 0x12, 0xa0, 0x55, 0xa5, 
  0x69, 0xca, 0x47, 0x3a, 0x10, 0x97, 0xea, 0xb9, 0x1d, 0x82, 0xfc, 0x32, 
  0xf0, 0x65, 0x04, 0x7c, 0x6d, 0x51, 0xaa, 0x22, 0x16, 0xaf, 0x73, 0x21, 
  0x2d, 0xe7, 0xde, 0x7f, 0xb9, 0x45, 0x3a, 0x42, 0x4f, 0xda, 0x63, 0xfb, 
  0x5f, 0xba, 0xfd, 0xad, 0xfa, 0xf8, 0x38, 0x10, 0x0d, 0xaf, 0xb8, 0x42, 
  0x41, 0xaa, 0xb0, 0x7b, 0x03, 0x77, 0xf3, 0xb3, 0x75, 0x4c, 0x92, 0x77, 
  0x8f, 0x0a, 0x67, 0x39, 0xbc, 0x58, 0xb5, 0xfc, 0x79, 0x7f, 0x24, 0xb2, 
  0x11, 0xb9, 0xf4, 0x25, 0x46, 0xe9, 0x79, 0x23, 0xcf, 0xb4, 0x61, 0x88, 
  0x2f, 0xf6, 0xc4, 0x50, 0xe6, 0xd1, 0xad, 0x76, 0xa0, 0x42, 0xf4, 0xf4, 
  0x51, 0xbb, 0x0b, 0xc3, 0x2a, 0x8d, 0xa6, 0xc9, 0x98, 0xcc, 0xb6, 0xb7, 
  0x19, 0x25, 0x2d, 0xd6, 0xe4, 0x6f, 0xd7, 0xed, 0x97, 0x02, 0x31, 0xdc, 
  0x54, 0x11, 0xa7, 0x74, 0x38, 0xe9, 0x6a, 0xaf, 0x97, 0xb2, 0x28, 0xd3, 
  0xdb, 0x46, 0xf6, 0xb4, 0x76, 0x05, 0xfb, 0x25, 0x67, 0x8e, 0xbb, 0x79, 
  0x98, 0x72, 0xb3, 0xf6, 0x73, 0x12, 0xed, 0x7f, 0xe9, 0xb0, 0xf9, 0xea, 
  0xba, 0x07, 0xdb, 0xd0, 0x3f, 0x78, 0xb8, 0xd8, 0xac, 0xd7, 0x14, 0x0f, 
  0xab, 0xbb, 0xd1, 0xcd, 0x0f, 0xa2, 0x4f, 0xfe, 0x50, 0x0e, 0x3d, 0xca, 
  0x11, 0xd7, 0x8e, 0x61, 0xa7, 0x33, 0x3f, 0x3c, 0x87, 0xcc, 0xf3, 0xad, 
  0xa1, 0x67, 0x34, 0x73, 0x08, 0x49, 0x48, 0x9f, 0xbc, 0x9e, 0xd5, 0x89, 
  0x64, 0x98, 0x14, 0x38, 0xd2, 0x1f, 0x4a, 0x1e, 0x31, 0x42, 0xb1, 0x75, 
  0x76, 0xa3, 0x53, 0x79, 0xe1, 0xa6, 0x64, 0xf0, 0xea, 0x3f, 0x8d, 0x6f, 
  0x8a, 0x17, 0xa8, 0x65, 0x19, 0xbb, 0x26, 0x61, 0x7a, 0x1c, 0xae, 0xe2, 
  0x48, 0xd9, 0x5c, 0x9c, 0x3f, 0x81, 0x96, 0xb9, 0x4e, 0x71, 0xf8, 0x26, 
  0xe8, 0xf1, 0x49, 0x1c, 0xe7, 0x16, 0x36, 0x0e, 0xb6, 0x78, 0x65, 0x93, 
  0xde, 0xbc, 0xd8, 0xdd, 0x05, 0xc2, 0x63, 0x88, 0x65, 0x68, 0x34, 0x53, 
  0x28, 0xec, 0xf3, 0x12, 0xc6, 0x23, 0xbf, 0xea, 0x0e, 0x5c, 0xa4, 0x2b, 
  0xaf, 0xff, 0x45, 0x7a, 0x9e, 0xf5, 0xce, 0xaf, 0x58, 0x70, 0x1d, 0xf5, 
  0xa0, 0x21, 0x4a, 0x6b, 0x0e, 0x68, 0x16, 0x9a, 0xf7, 0x60, 0x37, 0x6d, 
  0xf5, 0x2f, 0x2a, 0xb7, 0xbb, 0x35, 0xb0, 0xdc, 0x97, 0x89, 0x5a, 0xdf, 
  0x54, 0x4a, 0xc5, 0xc4, 0x1b, 0x53, 0x84, 0x28, 0x42, 0x87, 0xd0, 0x06, 
  0xd2, 0x73, 0x4a, 0x31, 0xc1, 0x4a, 0xa4, 0xb9, 0xc4, 0x2c, 0x17, 0x5b, 
  0x14, 0xc8, 0xb9, 0x41, 0x2c, 0x09, 0x2b, 0x9f, 0x6d, 0x81, 0xec, 0xe2, 
  0x81, 0x85, 0x54, 0x46, 0x14, 0x85, 0xe5, 0x6d, 0xa3, 0xea, 0x87, 0x3c, 
  0x50, 0xe7, 0xd5, 0xbc, 0x70, 0x54, 0xf6, 0x4f, 0xb2, 0xf9, 0x47, 0x2d, 
  0x60, 0x54, 0x4d, 0xc2, 0xae, 0x33, 0x08, 0x0d, 0x0f, 0x8a, 0x0c, 0xdc, 
  0x58, 0x8c, 0x5d, 0x21, 0xa5, 0x72, 0xaf, 0x7b, 0xf6, 0x03, 0xc1, 0x83, 
  0x7a, 0x98, 0x85, 0xba, 0xb1, 0xbc, 0xab, 0xc3, 0x83, 0xd3, 0xe6, 0xa4, 
  0x66, 0x7f, 0xd1, 0x8e, 0x05, 0x83, 0x49, 0x5c, 0x5f, 0xa4, 0xdd, 0xeb, 
  0x6f, 0x74, 0x59, 0x9e, 0xe2, 0x3f, 0x1e, 0xc8, 0xec, 0x75, 0x75, 0xfb, 
  0x0b, 0x37, 0x4c, 0x03, 0xdc, 0xd4, 0x36, 0xc0, 0x0d, 0xf8, 0x06, 0x05, 
  0x3b, 0x94, 0x5e, 0xf0, 0x03, 0xbc, 0x89, 0xb9, 0xb8, 0x5e, 0x9a, 0x62, 
  0xee, 0xd0, 0xa3, 0x3c, 0x9b, 0x4f, 0x57, 0x2e, 0x56, 0x16, 0x2c, 0x0c, 
  0x14, 0x7f, 0x7a, 0xf4, 0x27, 0x89, 0xe7, 0x0a, 0xcf, 0x03, 0x67, 0xfb, 
  0xee, 0xcc, 0x63, 0x65, 0x23, 0xc5, 0xf7, 0x4e, 0x65, 0x2a, 0xf6, 0xbe, 
  0x7d, 0x4b, 0xd8, 0x62, 0xcf, 0x40, 0x7d, 0x3a, 0xf6, 0xd8, 0x24, 0x9e, 
  0xad, 0x34, 0x78, 0x64, 0x21, 0x21, 0x99, 0x74, 0x85, 0x1a, 0x66, 0xb2, 
  0x93, 0xf6, 0x1b, 0x98, 0x84, 0xd3, 0x36, 0x35, 0xd7, 0xef, 0xd4, 0x75, 
  0xaa, 0xaa, 0x39, 0xa2, 0xf9, 0x14, 0xac, 0xe8, 0x19, 0x78, 0x8c, 0x97, 
  0x67, 0x2f, 0xb1, 0xfa, 0x28, 0x12, 0xf9, 0x12, 0xc7, 0xa3, 0x5f, 0x8a, 
  0x73, 0xec, 0xe0, 0xa8, 0x08, 0xb0, 0xc7, 0xd7, 0xea, 0x75, 0x78, 0xf0, 
  0x39, 0xb5, 0x8d, 0x78, 0x4f, 0x3e, 0xa4, 0xa4, 0x47, 0xd9, 0x86, 0xdb, 
  0xa0, 0xfe, 0x92, 0x5c, 0xad, 0x20, 0x18, 0xea, 0x06, 0xa5, 0x1f, 0x2e, 
  0xee, 0xb7, 0x2c, 0xf1, 0xbf, 0x2f, 0x96, 0xd2, 0x24, 0xf3, 0x82, 0xdf, 
  0x1a, 0xb2, 0x3e, 0xb0, 0x2c, 0x52, 0x81, 0xc1, 0x85, 0xce, 0xea, 0x08, 
  0xbf, 0x99, 0x0c, 0x94, 0xc7, 0x9a, 0x8e, 0x3a, 0x56, 0xc9, 0xd7, 0x5e, 
  0xd7, 0x1c, 0xb5, 0x4e, 0xb8, 0x95, 0x1f, 0xd1, 0xcc, 0x5f, 0x8b, 0xc0, 
  0x7f, 0xe3, 0xdc, 0xb2, 0xda, 0x17, 0x2d, 0x2a, 0xa5, 0x96, 0x67, 0x74, 
  0x04, 0x49, 0x89, 0x65, 0x86, 0x9a, 0x5f, 0xea, 0x63, 0x12, 0x19, 0x4c, 
  0x7a, 0x5b, 0x0d, 0x41, 0xd5, 0xda, 0xa9, 0xd7, 0xd4, 0xe3, 0x73, 0x10, 
  0xbc, 0xf6, 0x13, 0xab, 0x5a, 0xf7, 0xe6, 0x61, 0xf0, 0x57, 0x8a, 0x97, 
  0x90, 0x46, 0x66, 0x98, 0x5a, 0x13, 0x01, 0xa2, 0xfa, 0x4d, 0x49, 0xa2, 
  0x7f, 0xcd, 0x55, 0xe6, 0x67, 0xf3, 0xb0, 0x90, 0xc1, 0xc6, 0x5d, 0xc3, 
  0xcc, 0xe0, 0xeb, 0x24, 0x7b, 0x5a, 0xd3, 0xc6, 0xf3, 0x28, 0x9e, 0x3c, 
  0xab, 0x0f, 0xeb, 0x16, 0xe3, 0xf5, 0xc1, 0x44, 0x32, 0x59, 0x97, 0xc4, 
  0xe8, 0x01, 0xe7, 0x8b, 0xcf, 0xdf, 0xc4, 0x4d, 0x7c, 0x0f, 0x0c, 0x7b, 
  0xe9, 0xde, 0x32, 0xbd, 0x0a, 0x6f, 0x68, 0xd8, 0xfe, 0x22, 0xdc, 0x5f, 
  0xbf, 0xc7, 0xa7, 0x1d, 0x12, 0x7e, 0x0d, 0x24, 0x89, 0xea, 0xc4, 0x64, 
  0xfb, 0x8d, 0xa7, 0x3e, 0xd6, 0x72, 0xae, 0x61, 0xdf, 0x1c, 0x50, 0x51, 
  0xa1, 0xd5, 0xd4, 0x6e, 0xe8, 0x05, 0xa7, 0x7e, 0x43, 0xff, 0x68, 0x6f, 
  0x11, 0x39, 0x64, 0xda, 0xf8, 0xb9, 0x45, 0x1d, 0x81, 0x4c, 0x67, 0xa5, 
  0x40, 0x70, 0x6e, 0x75, 0xbb, 0x68, 0x2b, 0x5b, 0x9a, 0x0b, 0xd4, 0xd1, 
  0x3d, 0x05, 0xca, 0x47, 0x94, 0x45, 0x3a, 0xb7, 0x60, 0x59, 0xe9, 0xf2, 
  0x57, 0x14, 0x1b, 0x03, 0x21, 0x89, 0xb4, 0xec, 0xc7, 0xf6, 0xac, 0xd9, 
  0x1e, 0x76, 0x8e, 0x47, 0x5e, 0x3b, 0xdc, 0xac, 0xd4, 0x4d, 0x9e, 0xd8, 
  0x18, 0xd1, 0x04, 0xf2, 0x11, 0xf0, 0xb9, 0x61, 0xc3, 0xf4, 0x43, 0x3b, 
  0x8a, 0x94, 0x72, 0x8e, 0xc8, 0xbc, 0xe0, 0x8f, 0x23, 0x05, 0x5f, 0x99, 
  0xd9, 0x7f, 0x70, 0x65, 0x96, 0x82, 0x36, 0x14, 0xb8, 0xa9, 0xf7, 0x15, 
  0xfc, 0x05, 0x09, 0x49, 0xf9, 0xe0, 0xe0, 0x10, 0xb9, 0x02, 0x6d, 0xf8, 
  0x39, 0x03, 0xbe, 0xe2, 0x77, 0xca, 0x50, 0xcb, 0x9c, 0x68, 0x3e, 0x4e, 
  0x8b, 0xe0, 0x03, 0xde, 0x85, 0xd6, 0xa1, 0x0e, 0x67, 0x1f, 0x20, 0xd4, 
  0x7d, 0x94, 0xcb, 0x13, 0x77, 0x86, 0xd0, 0x98, 0xb8, 0x0b, 0x02, 0x42, 
  0xfd, 0x9e, 0xa0, 0xc4, 0x36, 0x43, 0x3a, 0xfb, 0xd2, 0x94, 0xe8, 0xdb, 
  0xa0, 0x70, 0x76, 0x17, 0xcb, 0x25, 0x95, 0xff, 0x03, 0x84, 0xdc, 0xc0, 
  0x20, 0xc0, 0xa6, 0x55, 0x2f, 0x29, 0x65, 0xf0, 0x21, 0xcd, 0xa2, 0x65, 
  0x63, 0xd8, 0x04, 0xc2, 0x36, 0x26, 0xb9, 0x84, 0x8c, 0x72, 0xa7, 0x1e, 
  0x98, 0x18, 0x07, 0x76, 0x00, 0x47, 0x84, 0xa0, 0xc8, 0xc6, 0x50, 0xfb, 
  0xa3, 0x39, 0xd8, 0xa2, 0x15, 0x90, 0xb6, 0x49, 0xd4, 0x34, 0xc0, 0xef, 
  0x24, 0xb8, 0x20, 0xac, 0x7d, 0x63, 0x86, 0xa7, 0x4e, 0x17, 0x44, 0xc9, 
  0xfa, 0x81, 0xc7, 0x87, 0x47, 0x73, 0x2d, 0x16, 0x9b, 0xca, 0x95, 0x5b, 
  0xfc, 0x28, 0x5f, 0x0b, 0x21, 0xb8, 0xb9, 0x8c, 0x88, 0x53, 0x2d, 0x2a, 
  0x83, 0x7b, 0xe1, 0x7f, 0x86, 0x36, 0x3f, 0xa8, 0xa0, 0x9f, 0x8c, 0x31, 
  0x96, 0xcb, 0x77, 0xfd, 0xce, 0xf5, 0xe5, 0x07, 0x09, 0xa8, 0xc5, 0xaa, 
  0x32, 0x69, 0xc5, 0x67, 0xbd, 0xea, 0x75, 0x67, 0xdb, 0x46, 0xc3, 0x44, 
  0x76, 0xf1, 0x9a, 0xcd, 0x93, 0x84, 0xf1, 0x01, 0x42, 0x6c, 0xda, 0x41, 
  0xf2, 0x5c, 0x7a, 0xf0, 0xdd, 0xc9, 0x2e, 0xfb, 0x90, 0x55, 0x9f, 0xe8, 
  0x96, 0xcd, 0x39, 0xda, 0x18, 0xb5, 0xdc, 0x04, 0x77, 0xe2, 0x68, 0xf8, 
  0x1f, 0x41, 0x55, 0x50, 0x8f, 0x72, 0x75, 0x84, 0xbf, 0x7c, 0x82, 0x05, 
  0xb6, 0xa8, 0x67, 0x89, 0x4b, 0x60, 0x52, 0xb4, 0x00, 0xf3, 0x71, 0x7f, 
  0x13, 0xdc, 0x49, 0x45, 0xfb, 0x9d, 0x17, 0xf4, 0x44, 0x6c, 0xa5, 0x15, 
  0x5d, 0x73, 0x18, 0x93, 0xb2, 0xea, 0xe3, 0x4e, 0xc6, 0x74, 0xcd, 0x56, 
  0x4f, 0x6e, 0xa3, 0xeb, 0x4e, 0x84, 0x18, 0xec, 0x12, 0xfc, 0x95, 0xc2, 
  0x76, 0xcc, 0x41, 0x39, 0x90, 0xe8, 0x58, 0xeb, 0x37, 0x85, 0x17, 0xbe, 
  0x49, 0x27, 0x05, 0xaf, 0x29, 0x33, 0x7d, 0x7d, 0x17, 0xbc, 0xee, 0x17, 
  0x0d, 0xa1, 0x62, 0x4c, 0x78, 0x72, 0xc9, 0x5b, 0xf8, 0x72, 0xa5, 0x5b, 
  0x69, 0x3e, 0xa2, 0x4f, 0x2a, 0xde, 0x72, 0x3a, 0x29, 0x9b, 0xe7, 0x7b, 
  0x69, 0x65, 0xe5, 0x00, 0xfa, 0xdf, 0x78, 0xd4, 0xe1, 0x0d, 0x63, 0xea, 
  0xab, 0x08, 0x2b, 0x8b, 0x51, 0x1f, 0xbf, 0x0f, 0x05, 0xa6, 0xa0, 0x16, 
  0x76, 0x24, 0x5b, 0xe0, 0x6b, 0x7c, 0x30, 0x58, 0x61, 0xd1, 0x1f, 0x76, 
  0x69, 0xf7, 0x64, 0xa4, 0x5f, 0x5e, 0x05, 0x3b, 0x5e, 0xfa, 0xc4, 0x7a, 
  0xdf, 0x04, 0x91, 0xc6, 0x73, 0x74, 0xe2, 0xa3, 0x56, 0x97, 0x2b, 0x82, 
  0x83, 0x57, 0x16, 0x34, 0x38, 0x92, 0x04, 0x7f, 0xa2, 0xed, 0x0c, 0xac, 
  0x44, 0xb4, 0x6d, 0x84, 0x57, 0xa4, 0xe0, 0x06, 0x2a, 0x88, 0xfe, 0x26, 
  0x85, 0x35, 0xf4, 0x74, 0xd2, 0x8e, 0xb2, 0x70, 0x0e, 0xdd, 0xef, 0xfd, 
  0x6d, 0x6e, 0x26, 0x7f, 0x8f, 0x73, 0x2c, 0x28, 0x51, 0x00, 0x77, 0xf1, 
  0x06, 0x2c, 0xf7, 0x61, 0xb3, 0x2b, 0x0f, 0xc5, 0x7d, 0xd8, 0xe7, 0x4b, 
  0x41, 0xce, 0x55, 0x17, 0x75, 0x7b, 0x50, 0x27, 0x2b, 0x36, 0x05, 0xcd, 
  0x6a, 0x5a, 0xb9, 0xac, 0xf8, 0xd4, 0x42, 0x50, 0xce, 0x7b, 0x2d, 0x2a, 
  0xd4, 0x53, 0x1f, 0xb4, 0x7f, 0xb9, 0x71, 0xb5, 0x2d, 0x4b, 0xda, 0xb7, 
  0x89, 0x83, 0xb9, 0x7f, 0xf2, 0x3c, 0x0b, 0x07, 0x8e, 0x19, 0xa8, 0x59, 
  0x42, 0xc1, 0xa5, 0x9c, 0x36, 0xfb, 0x99, 0xed, 0xa9, 0x6a, 0x7d, 0x6a, 
  0xf2, 0xfd, 0xff, 0xff, 0x04, 0x00, 0x00, 0x00, 0x00, 0x02, 0x00, 0x00, 
  0x2e, 0xab, 0x68, 0xf1, 0x1d, 0x84, 0xa9, 0x7b, 0x31, 0xa3, 0x0a, 0xf3, 
  0x6b, 0xfa, 0xe2, 0x56, 0xe8, 0x0d, 0x1a, 0x19, 0x4d, 0xec, 0x7f, 0x56, 
  0x64, 0xcf, 0xc7, 0x9f, 0x9a, 0x37, 0x91, 0xa9, 0x6f, 0x2a, 0xfb, 0x6a, 
  0x4a, 0x59, 0x6f, 0xbb, 0xcc, 0x9a, 0xde, 0x7c, 0x42, 0x50, 0xb5, 0xbe, 
  0x17, 0xd8, 0x81, 0x46, 0x9d, 0xf5, 0x86, 0x6e, 0xb1, 0x6b, 0x8c, 0xb0, 
  0xc2, 0x97, 0x28, 0x37, 0x1f, 0x0f, 0x91, 0x39, 0x7f, 0xfc, 0xe2, 0x40, 
  0x68, 0x6d, 0x50, 0x07, 0x37, 0x21, 0x88, 0x14, 0x45, 0xd3, 0x9b, 0x1e, 
  0x1e, 0x4a, 0x04, 0x37, 0x65, 0xc4, 0x93, 0x39, 0x75, 0x4c, 0xef, 0xbe, 
  0x96, 0x6d, 0x93, 0x5a, 0xe4, 0x7b, 0xb6, 0xda, 0x44, 0x7a, 0x1e, 0x8c, 
  0x2d, 0x0d, 0xff, 0x4c, 0x5e, 0x7f, 0x1c, 0x76, 0x3e, 0xef, 0xe2, 0x79, 
  0xa3, 0xd1, 0x74, 0xaa, 0xf5, 0x08, 0x8f, 0x7c, 0xe5, 0x15, 0x03, 0xcc, 
  0x2c, 0xdf, 0x98, 0xf0, 0x9c, 0x6b, 0xa0, 0xef, 0xea, 0x81, 0xa2, 0x44, 
  0xe6, 0x99, 0x54, 0x41, 0x9a, 0xb8, 0xdf, 0x94, 0x96, 0x48, 0x6d, 0x52, 
  0xa3, 0x64, 0x4b, 0x7a, 0x91, 0xae, 0x56, 0x3d, 0x64, 0xae, 0xa5, 0x17, 
  0x2a, 0x91, 0xdf, 0xf3, 0x30, 0xa7, 0xa9, 0x5f, 0x57, 0x52, 0x41, 0x81, 
  0xf1, 0xfd, 0x79, 0x12, 0xf9, 0x92, 0x7f, 0xb6, 0x87, 0xdc, 0x5c, 0xce, 
  0xef, 0xba, 0xe3, 0xd2, 0x07, 0xf0, 0x93, 0xd0, 0x49, 0xf4, 0xff, 0xde, 
  0x94, 0xb1, 0xb4, 0xf5, 0x04, 0x81, 0x5e, 0x83, 0xe1, 0xbb, 0xfd, 0xe2, 
  0xcb, 0x6b, 0x4c, 0x2b, 0x7e, 0x5a, 0x63, 0x1e, 0xa9, 0xb5, 0x65, 0xa7, 
  0xe8, 0xb2, 0x56, 0x52, 0x40, 0x20, 0x8d, 0x2c, 0x2c, 0x0c, 0x4b, 0x0f, 
  0x39, 0x8e, 0x81, 0x34, 0x51, 0x40, 0x17, 0x35, 0x9f, 0xa8, 0xed, 0xf0, 
  0x8f, 0x36, 0x5a, 0x08, 0x37, 0xc2, 0xd0, 0x7a, 0xf4, 0xf3, 0x4c, 0x09, 
  0x36, 0xf8, 0x54, 0x22, 0xb6, 0x02, 0xe0, 0x2a, 0x7e, 0x6a, 0x88, 0x4c, 
  0xd6, 0x3f, 0xe5, 0x87, 0x7f, 0x54, 0x87, 0x3c, 0x19, 0xe0, 0x2f, 0x24, 
  0xec, 0x32, 0x3d, 0x2a, 0x7d, 0xd3, 0xa7, 0xc1, 0x7f, 0xbe, 0x7e, 0xb3, 
  0xe9, 0xc8, 0x0f, 0x29, 0x20, 0xd3, 0x7f, 0x5e, 0x79, 0x74, 0x62, 0x24, 
  0xbd, 0x7d, 0x5b, 0x82, 0x4d, 0x12, 0xd6, 0x1a, 0xae, 0xd7, 0x78, 0xc4, 
  0x87, 0x98, 0xf6, 0xaf, 0x32, 0x04, 0x02, 0xff, 0x46, 0xcf, 0x7f, 0x12, 
  0xe9, 0x09, 0x1a, 0xb1, 0x87, 0xf0, 0x14, 0xc6, 0x63, 0x04, 0x01, 0x91, 
  0xef, 0x8e, 0x8a, 0x63, 0x14, 0x08, 0x14, 0x11, 0x4b, 0xc4, 0x44, 0x25, 
  0x43, 0x4b, 0x1b, 0xeb, 0xf1, 0x4c, 0x1b, 0x1a, 0xc9, 0x84, 0x81, 0x95, 
  0xb6, 0x2e, 0x1f, 0x1b, 0x10, 0xc3, 0x1b, 0x2f, 0xd9, 0x35, 0xdb, 0xa0, 
  0x47, 0x23, 0x5c, 0xd4, 0x5e, 0xff, 0xe3, 0xd0, 0xee, 0x61, 0x14, 0xe1, 
  0x41, 0xc2, 0xf9, 0xfd, 0x7f, 0x1f, 0xc4, 0xac, 0x74, 0x61, 0xd1, 0xed, 
  0x0b, 0x43, 0xde, 0xff, 0x31, 0xd3, 0x43, 0xcf, 0xdf, 0xb5, 0x46, 0xd9, 
  0x04, 0xd9, 0x67, 0x79, 0x19, 0x79, 0x34, 0x35, 0x6d, 0xdf, 0xd5, 0x7f, 
  0xc3, 0x38, 0x0b, 0xdd, 0x91, 0xa8, 0xf3, 0x43, 0x22, 0x98, 0xcf, 0xb9, 
  0x95, 0x39, 0x65, 0xf4, 0x72, 0xdc, 0xc6, 0x81, 0x1d, 0x7b, 0xb2, 0xfc, 
  0x47, 0x8c, 0x7b, 0x5b, 0x61, 0x0d, 0x87, 0x8a, 0x1b, 0x65, 0xa7, 0x70, 
  0xc3, 0x0d, 0x9c, 0x3f, 0xb7, 0xe6, 0x62, 0x69, 0x20, 0xf7, 0x21, 0x8c, 
  0xf6, 0xd4, 0x2d, 0x22, 0x76, 0x45, 0x23, 0x33, 0xc3, 0xd6, 0x67, 0x40, 
  0xbe, 0x8f, 0xee, 0x65, 0x7d, 0x75, 0x8b, 0x77, 0x51, 0x7f, 0x3e, 0xcf, 
  0x49, 0x3c, 0x7d, 0xd2, 0xde, 0xa9, 0x8c, 0x75, 0x00, 0x00, 0x06, 0x00, 
  0x08, 0x00, 0x04, 0x00, 0x06, 0x00, 0x00, 0x00, 0x04, 0x00, 0x00, 0x00, 
  0x10, 0x00, 0x00, 0x00, 0xbc, 0x35, 0x75, 0x68, 0x7f, 0x94, 0x5e, 0x19, 
  0x6a, 0x8e, 0x57, 0x4a, 0x5a, 0x17, 0x32, 0x14, 0x54, 0xff, 0xff, 0xff, 
  0x58, 0xff, 0xff, 0xff, 0x0f, 0x00, 0x00, 0x00, 0x4d, 0x4c, 0x49, 0x52, 
  0x20, 0x43, 0x6f, 0x6e, 0x76, 0x65, 0x72, 0x74, 0x65, 0x64, 0x2e, 0x00, 
  0x01, 0x00, 0x00, 0x00, 0x14, 0x00, 0x00, 0x00, 0x00, 0x00, 0x0e, 0x00, 
  0x18, 0x00, 0x14, 0x00, 0x10, 0x00, 0x0c, 0x00, 0x08, 0x00, 0x04, 0x00, 
  0x0e, 0x00, 0x00, 0x00, 0x14, 0x00, 0x00, 0x00, 0x1c, 0x00, 0x00, 0x00, 
  0x0c, 0x01, 0x00, 0x00, 0x10, 0x01, 0x00, 0x00, 0x14, 0x01, 0x00, 0x00, 
  0x04, 0x00, 0x00, 0x00, 0x6d, 0x61, 0x69, 0x6e, 0x00, 0x00, 0x00, 0x00, 
  0x04, 0x00, 0x00, 0x00, 0xb4, 0x00, 0x00, 0x00, 0x6c, 0x00, 0x00, 0x00, 
  0x34, 0x00, 0x00, 0x00, 0x10, 0x00, 0x00, 0x00, 0x00, 0x00, 0x0a, 0x00, 
  0x10, 0x00, 0x0c, 0x00, 0x08, 0x00, 0x04, 0x00, 0x0a, 0x00, 0x00, 0x00, 
  0x0c, 0x00, 0x00, 0x00, 0x10, 0x00, 0x00, 0x00, 0x01, 0x00, 0x00, 0x00, 
  0x01, 0x00, 0x00, 0x00, 0x07, 0x00, 0x00, 0x00, 0x01, 0x00, 0x00, 0x00, 
  0x06, 0x00, 0x00, 0x00, 0x96, 0xff, 0xff, 0xff, 0x14, 0x00, 0x00, 0x00, 
  0x00, 0x00, 0x00, 0x08, 0x10, 0x00, 0x00, 0x00, 0x14, 0x00, 0x00, 0x00, 
  0x04, 0x00, 0x04, 0x00, 0x04, 0x00, 0x00, 0x00, 0x01, 0x00, 0x00, 0x00, 
  0x06, 0x00, 0x00, 0x00, 0x03, 0x00, 0x00, 0x00, 0x05, 0x00, 0x00, 0x00, 
  0x01, 0x00, 0x00, 0x00, 0xff, 0xff, 0xff, 0xff, 0xca, 0xff, 0xff, 0xff, 
  0x10, 0x00, 0x00, 0x00, 0x00, 0x00, 0x00, 0x08, 0x10, 0x00, 0x00, 0x00, 
  0x14, 0x00, 0x00, 0x00, 0xba, 0xff, 0xff, 0xff, 0x00, 0x00, 0x00, 0x01, 
  0x01, 0x00, 0x00, 0x00, 0x05, 0x00, 0x00, 0x00, 0x03, 0x00, 0x00, 0x00, 
  0x04, 0x00, 0x00, 0x00, 0x02, 0x00, 0x00, 0x00, 0xff, 0xff, 0xff, 0xff, 
  0x00, 0x00, 0x0e, 0x00, 0x16, 0x00, 0x00, 0x00, 0x10, 0x00, 0x0c, 0x00, 
  0x0b, 0x00, 0x04, 0x00, 0x0e, 0x00, 0x00, 0x00, 0x18, 0x00, 0x00, 0x00, 
  0x00, 0x00, 0x00, 0x08, 0x18, 0x00, 0x00, 0x00, 0x1c, 0x00, 0x00, 0x00, 
  0x00, 0x00, 0x06, 0x00, 0x08, 0x00, 0x07, 0x00, 0x06, 0x00, 0x00, 0x00, 
  0x00, 0x00, 0x00, 0x01, 0x01, 0x00, 0x00, 0x00, 0x04, 0x00, 0x00, 0x00, 
  0x03, 0x00, 0x00, 0x00, 0x00, 0x00, 0x00, 0x00, 0x03, 0x00, 0x00, 0x00, 
  0xff, 0xff, 0xff, 0xff, 0x01, 0x00, 0x00, 0x00, 0x07, 0x00, 0x00, 0x00, 
  0x01, 0x00, 0x00, 0x00, 0x00, 0x00, 0x00, 0x00, 0x08, 0x00, 0x00, 0x00, 
  0xcc, 0x05, 0x00, 0x00, 0x4c, 0x05, 0x00, 0x00, 0x18, 0x04, 0x00, 0x00, 
  0x3c, 0x02, 0x00, 0x00, 0xa0, 0x01, 0x00, 0x00, 0x04, 0x01, 0x00, 0x00, 
  0x80, 0x00, 0x00, 0x00, 0x04, 0x00, 0x00, 0x00, 0x6a, 0xfa, 0xff, 0xff, 
  0x00, 0x00, 0x00, 0x01, 0x18, 0x00, 0x00, 0x00, 0x20, 0x00, 0x00, 0x00, 
  0x3c, 0x00, 0x00, 0x00, 0x08, 0x00, 0x00, 0x00, 0x00, 0x00, 0x00, 0x09, 
  0x50, 0x00, 0x00, 0x00, 0x02, 0x00, 0x00, 0x00, 0xff, 0xff, 0xff, 0xff, 
  0x01, 0x00, 0x00, 0x00, 0x54, 0xfa, 0xff, 0xff, 0x08, 0x00, 0x00, 0x00, 
  0x10, 0x00, 0x00, 0x00, 0x01, 0x00, 0x00, 0x00, 0x80, 0xff, 0xff, 0xff, 
  0xff, 0xff, 0xff, 0xff, 0x01, 0x00, 0x00, 0x00, 0x00, 0x00, 0x80, 0x3b, 
  0x1b, 0x00, 0x00, 0x00, 0x53, 0x74, 0x61, 0x74, 0x65, 0x66, 0x75, 0x6c, 
  0x50, 0x61, 0x72, 0x74, 0x69, 0x74, 0x69, 0x6f, 0x6e, 0x65, 0x64, 0x43, 
  0x61, 0x6c, 0x6c, 0x5f, 0x31, 0x3a, 0x30, 0x00, 0x02, 0x00, 0x00, 0x00, 
  0x01, 0x00, 0x00, 0x00, 0x01, 0x00, 0x00, 0x00, 0xe2, 0xfa, 0xff, 0xff, 
  0x00, 0x00, 0x00, 0x01, 0x18, 0x00, 0x00, 0x00, 0x20, 0x00, 0x00, 0x00, 
  0x40, 0x00, 0x00, 0x00, 0x07, 0x00, 0x00, 0x00, 0x00, 0x00, 0x00, 0x09, 
  0x58, 0x00, 0x00, 0x00, 0x02, 0x00, 0x00, 0x00, 0xff, 0xff, 0xff, 0xff, 
  0x01, 0x00, 0x00, 0x00, 0xcc, 0xfa, 0xff, 0xff, 0x08, 0x00, 0x00, 0x00, 
  0x14, 0x00, 0x00, 0x00, 0x01, 0x00, 0x00, 0x00, 0xaf, 0xff, 0xff, 0xff, 
  0xff, 0xff, 0xff, 0xff, 0x00, 0x00, 0x00, 0x00, 0x01, 0x00, 0x00, 0x00, 
  0xd3, 0xa3, 0xd2, 0x3c, 0x1c, 0x00, 0x00, 0x00, 0x73, 0x65, 0x71, 0x75, 
  0x65, 0x6e, 0x74, 0x69, 0x61, 0x6c, 0x5f, 0x31, 0x2f, 0x6f, 0x75, 0x74, 
  0x70, 0x75, 0x74, 0x5f, 0x31, 0x2f, 0x4d, 0x61, 0x74, 0x4d, 0x75, 0x6c, 
  0x00, 0x00, 0x00, 0x00, 0x02, 0x00, 0x00, 0x00, 0x01, 0x00, 0x00, 0x00, 
  0x01, 0x00, 0x00, 0x00, 0x62, 0xfb, 0xff, 0xff, 0x00, 0x00, 0x00, 0x01, 
  0x18, 0x00, 0x00, 0x00, 0x20, 0x00, 0x00, 0x00, 0x3c, 0x00, 0x00, 0x00, 
  0x06, 0x00, 0x00, 0x00, 0x00, 0x00, 0x00, 0x09, 0x70, 0x00, 0x00, 0x00, 
  0x02, 0x00, 0x00, 0x00, 0xff, 0xff, 0xff, 0xff, 0x10, 0x00, 0x00, 0x00, 
  0x4c, 0xfb, 0xff, 0xff, 0x08, 0x00, 0x00, 0x00, 0x10, 0x00, 0x00, 0x00, 
  0x01, 0x00, 0x00, 0x00, 0x80, 0xff, 0xff, 0xff, 0xff, 0xff, 0xff, 0xff, 
  0x01, 0x00, 0x00, 0x00, 0xd4, 0xe0, 0xd5, 0x3c, 0x39, 0x00, 0x00, 0x00, 
  0x73, 0x65, 0x71, 0x75, 0x65, 0x6e, 0x74, 0x69, 0x61, 0x6c, 0x5f, 0x31, 
  0x2f, 0x68, 0x69, 0x64, 0x64, 0x65, 0x6e, 0x32, 0x5f, 0x31, 0x2f, 0x4d, 
  0x61, 0x74, 0x4d, 0x75, 0x6c, 0x3b, 0x73, 0x65, 0x71, 0x75, 0x65, 0x6e, 
  0x74, 0x69, 0x61, 0x6c, 0x5f, 0x31, 0x2f, 0x68, 0x69, 0x64, 0x64, 0x65, 
  0x6e, 0x32, 0x5f, 0x31, 0x2f, 0x52, 0x65, 0x6c, 0x75, 0x00, 0x00, 0x00, 
  0x02, 0x00, 0x00, 0x00, 0x01, 0x00, 0x00, 0x00, 0x10, 0x00, 0x00, 0x00, 
  0xfa, 0xfb, 0xff, 0xff, 0x00, 0x00, 0x00, 0x01, 0x18, 0x00, 0x00, 0x00, 
  0x20, 0x00, 0x00, 0x00, 0x3c, 0x00, 0x00, 0x00, 0x05, 0x00, 0x00, 0x00, 
  0x00, 0x00, 0x00, 0x09, 0x70, 0x00, 0x00, 0x00, 0x02, 0x00, 0x00, 0x00, 
  0xff, 0xff, 0xff, 0xff, 0x20, 0x00, 0x00, 0x00, 0xe4, 0xfb, 0xff, 0xff, 
  0x08, 0x00, 0x00, 0x00, 0x10, 0x00, 0x00, 0x00, 0x01, 0x00, 0x00, 0x00, 
  0x80, 0xff, 0xff, 0xff, 0xff, 0xff, 0xff, 0xff, 0x01, 0x00, 0x00, 0x00, 
  0x60, 0x58, 0x05, 0x3d, 0x39, 0x00, 0x00, 0x00, 0x73, 0x65, 0x71, 0x75, 
  0x65, 0x6e, 0x74, 0x69, 0x61, 0x6c, 0x5f, 0x31, 0x2f, 0x68, 0x69, 0x64, 
  0x64, 0x65, 0x6e, 0x31, 0x5f, 0x31, 0x2f, 0x4d, 0x61, 0x74, 0x4d, 0x75, 
  0x6c, 0x3b, 0x73, 0x65, 0x71, 0x75, 0x65, 0x6e, 0x74, 0x69, 0x61, 0x6c, 
  0x5f, 0x31, 0x2f, 0x68, 0x69, 0x64, 0x64, 0x65, 0x6e, 0x31, 0x5f, 0x31, 
  0x2f, 0x52, 0x65, 0x6c, 0x75, 0x00, 0x00, 0x00, 0x02, 0x00, 0x00, 0x00, 
  0x01, 0x00, 0x00, 0x00, 0x20, 0x00, 0x00, 0x00, 0x0e, 0xfd, 0xff, 0xff, 
  0x00, 0x00, 0x00, 0x01, 0x14, 0x00, 0x00, 0x00, 0xa8, 0x01, 0x00, 0x00, 
  0x04, 0x00, 0x00, 0x00, 0x00, 0x00, 0x00, 0x09, 0xb4, 0x01, 0x00, 0x00, 
  0x6c, 0xfc, 0xff, 0xff, 0x08, 0x00, 0x00, 0x00, 0x0c, 0x01, 0x00, 0x00, 
  0x20, 0x00, 0x00, 0x00, 0x00, 0x00, 0x00, 0x00, 0x00, 0x00, 0x00, 0x00, 
  0x00, 0x00, 0x00, 0x00, 0x00, 0x00, 0x00, 0x00, 0x00, 0x00, 0x00, 0x00, 
  0x00, 0x00, 0x00, 0x00, 0x00, 0x00, 0x00, 0x00, 0x00, 0x00, 0x00, 0x00, 
  0x00, 0x00, 0x00, 0x00, 0x00, 0x00, 0x00, 0x00, 0x00, 0x00, 0x00, 0x00, 
  0x00, 0x00, 0x00, 0x00, 0x00, 0x00, 0x00, 0x00, 0x00, 0x00, 0x00, 0x00, 
  0x00, 0x00, 0x00, 0x00, 0x00, 0x00, 0x00, 0x00, 0x00, 0x00, 0x00, 0x00, 
  0x00, 0x00, 0x00, 0x00, 0x00, 0x00, 0x00, 0x00, 0x00, 0x00, 0x00, 0x00, 
  0x00, 0x00, 0x00, 0x00, 0x00, 0x00, 0x00, 0x00, 0x00, 0x00, 0x00, 0x00, 
  0x00, 0x00, 0x00, 0x00, 0x00, 0x00, 0x00, 0x00, 0x00, 0x00, 0x00, 0x00, 
  0x00, 0x00, 0x00, 0x00, 0x00, 0x00, 0x00, 0x00, 0x00, 0x00, 0x00, 0x00, 
  0x00, 0x00, 0x00, 0x00, 0x00, 0x00, 0x00, 0x00, 0x00, 0x00, 0x00, 0x00, 
  0x00, 0x00, 0x00, 0x00, 0x00, 0x00, 0x00, 0x00, 0x00, 0x00, 0x00, 0x00, 
  0x00, 0x00, 0x00, 0x00, 0x00, 0x00, 0x00, 0x00, 0x00, 0x00, 0x00, 0x00, 
  0x00, 0x00, 0x00, 0x00, 0x00, 0x00, 0x00, 0x00, 0x00, 0x00, 0x00, 0x00, 
  0x00, 0x00, 0x00, 0x00, 0x00, 0x00, 0x00, 0x00, 0x00, 0x00, 0x00, 0x00, 
  0x00, 0x00, 0x00, 0x00, 0x00, 0x00, 0x00, 0x00, 0x00, 0x00, 0x00, 0x00, 
  0x00, 0x00, 0x00, 0x00, 0x00, 0x00, 0x00, 0x00, 0x00, 0x00, 0x00, 0x00, 
  0x00, 0x00, 0x00, 0x00, 0x00, 0x00, 0x00, 0x00, 0x00, 0x00, 0x00, 0x00, 
  0x00, 0x00, 0x00, 0x00, 0x00, 0x00, 0x00, 0x00, 0x00, 0x00, 0x00, 0x00, 
  0x00, 0x00, 0x00, 0x00, 0x00, 0x00, 0x00, 0x00, 0x00, 0x00, 0x00, 0x00, 
  0x00, 0x00, 0x00, 0x00, 0x00, 0x00, 0x00, 0x00, 0x00, 0x00, 0x00, 0x00, 
  0x00, 0x00, 0x00, 0x00, 0x00, 0x00, 0x00, 0x00, 0x00, 0x00, 0x00, 0x00, 
  0x20, 0x00, 0x00, 0x00, 0x1c, 0x55, 0xdf, 0x3a, 0x31, 0x3a, 0xdf, 0x3a, 
  0xee, 0x3a, 0xdf, 0x3a, 0xea, 0x98, 0xd9, 0x3a, 0x53, 0x83, 0xdf, 0x3a, 
  0xa4, 0x5b, 0xdf, 0x3a, 0xd6, 0x92, 0xdf, 0x3a, 0x4b, 0x52, 0xdc, 0x3a, 
  0x4b, 0x3c, 0xdc, 0x3a, 0x00, 0x16, 0xe0, 0x3a, 0xaa, 0x24, 0xe0, 0x3a, 
  0x1a, 0x70, 0xde, 0x3a, 0xda, 0x15, 0xe0, 0x3a, 0x99, 0xc3, 0xdd, 0x3a, 
  0xf8, 0x46, 0xd9, 0x3a, 0x6f, 0x17, 0xde, 0x3a, 0xe5, 0x11, 0xe0, 0x3a, 
  0x99, 0xd7, 0xde, 0x3a, 0x6f, 0xd5, 0xde, 0x3a, 0x8b, 0x83, 0xde, 0x3a, 
  0x6f, 0x8a, 0xd8, 0x3a, 0xbd, 0x42, 0xd6, 0x3a, 0x7f, 0xf5, 0xdf, 0x3a, 
  0xf6, 0x25, 0xde, 0x3a, 0x69, 0xb9, 0xde, 0x3a, 0x2c, 0xde, 0xdd, 0x3a, 
  0x6b, 0xd7, 0xdf, 0x3a, 0xd5, 0x28, 0xdf, 0x3a, 0x38, 0x45, 0xe0, 0x3a, 
  0x3a, 0x5c, 0xda, 0x3a, 0xbd, 0x6d, 0xdf, 0x3a, 0xc8, 0xed, 0xdd, 0x3a, 
  0x12, 0x00, 0x00, 0x00, 0x74, 0x66, 0x6c, 0x2e, 0x70, 0x73, 0x65, 0x75, 
  0x64, 0x6f, 0x5f, 0x71, 0x63, 0x6f, 0x6e, 0x73, 0x74, 0x32, 0x00, 0x00, 
  0x02, 0x00, 0x00, 0x00, 0x20, 0x00, 0x00, 0x00, 0x5f, 0x00, 0x00, 0x00, 
  0xe6, 0xfe, 0xff, 0xff, 0x00, 0x00, 0x00, 0x01, 0x14, 0x00, 0x00, 0x00, 
  0xe8, 0x00, 0x00, 0x00, 0x03, 0x00, 0x00, 0x00, 0x00, 0x00, 0x00, 0x09, 
  0xf4, 0x00, 0x00, 0x00, 0x44, 0xfe, 0xff, 0xff, 0x08, 0x00, 0x00, 0x00, 
  0x8c, 0x00, 0x00, 0x00, 0x10, 0x00, 0x00, 0x00, 0x00, 0x00, 0x00, 0x00, 
  0x00, 0x00, 0x00, 0x00, 0x00, 0x00, 0x00, 0x00, 0x00, 0x00, 0x00, 0x00, 
  0x00, 0x00, 0x00, 0x00, 0x00, 0x00, 0x00, 0x00, 0x00, 0x00, 0x00, 0x00, 
  0x00, 0x00, 0x00, 0x00, 0x00, 0x00, 0x00, 0x00, 0x00, 0x00, 0x00, 0x00, 
  0x00, 0x00, 0x00, 0x00, 0x00, 0x00, 0x00, 0x00, 0x00, 0x00, 0x00, 0x00, 
  0x00, 0x00, 0x00, 0x00, 0x00, 0x00, 0x00, 0x00, 0x00, 0x00, 0x00, 0x00, 
  0x00, 0x00, 0x00, 0x00, 0x00, 0x00, 0x00, 0x00, 0x00, 0x00, 0x00, 0x00, 
  0x00, 0x00, 0x00, 0x00, 0x00, 0x00, 0x00, 0x00, 0x00, 0x00, 0x00, 0x00, 
  0x00, 0x00, 0x00, 0x00, 0x00, 0x00, 0x00, 0x00, 0x00, 0x00, 0x00, 0x00, 
  0x00, 0x00, 0x00, 0x00, 0x00, 0x00, 0x00, 0x00, 0x00, 0x00, 0x00, 0x00, 
  0x00, 0x00, 0x00, 0x00, 0x00, 0x00, 0x00, 0x00, 0x00, 0x00, 0x00, 0x00, 
  0x00, 0x00, 0x00, 0x00, 0x00, 0x00, 0x00, 0x00, 0x10, 0x00, 0x00, 0x00, 
  0x5e, 0x11, 0x33, 0x3b, 0x90, 0x59, 0x36, 0x3b, 0xf7, 0x79, 0x28, 0x3b, 
  0x56, 0x7d, 0x35, 0x3b, 0xd6, 0x24, 0x32, 0x3b, 0xe7, 0xaa, 0x28, 0x3b, 
  0xa3, 0x01, 0x36, 0x3b, 0xec, 0x23, 0x30, 0x3b, 0xb8, 0x4f, 0x1e, 0x3b, 
  0xbc, 0x81, 0x35, 0x3b, 0xd5, 0x97, 0x34, 0x3b, 0xc9, 0x43, 0x36, 0x3b, 
  0x09, 0x34, 0x34, 0x3b, 0x8e, 0xb4, 0x35, 0x3b, 0x02, 0x8a, 0x33, 0x3b, 
  0x1b, 0xa9, 0x27, 0x3b, 0x12, 0x00, 0x00, 0x00, 0x74, 0x66, 0x6c, 0x2e, 
  0x70, 0x73, 0x65, 0x75, 0x64, 0x6f, 0x5f, 0x71, 0x63, 0x6f, 0x6e, 0x73, 
  0x74, 0x31, 0x00, 0x00, 0x02, 0x00, 0x00, 0x00, 0x10, 0x00, 0x00, 0x00, 
  0x20, 0x00, 0x00, 0x00, 0x00, 0x00, 0x16, 0x00, 0x1c, 0x00, 0x18, 0x00, 
  0x17, 0x00, 0x10, 0x00, 0x0c, 0x00, 0x08, 0x00, 0x00, 0x00, 0x00, 0x00, 
  0x00, 0x00, 0x07, 0x00, 0x16, 0x00, 0x00, 0x00, 0x00, 0x00, 0x00, 0x01, 
  0x14, 0x00, 0x00, 0x00, 0x34, 0x00, 0x00, 0x00, 0x02, 0x00, 0x00, 0x00, 
  0x00, 0x00, 0x00, 0x09, 0x40, 0x00, 0x00, 0x00, 0x74, 0xff, 0xff, 0xff, 
  0x08, 0x00, 0x00, 0x00, 0x14, 0x00, 0x00, 0x00, 0x01, 0x00, 0x00, 0x00, 
  0x00, 0x00, 0x00, 0x00, 0x00, 0x00, 0x00, 0x00, 0x00, 0x00, 0x00, 0x00, 
  0x01, 0x00, 0x00, 0x00, 0xf0, 0xf0, 0x8d, 0x3b, 0x11, 0x00, 0x00, 0x00, 
  0x74, 0x66, 0x6c, 0x2e, 0x70, 0x73, 0x65, 0x75, 0x64, 0x6f, 0x5f, 0x71, 
  0x63, 0x6f, 0x6e, 0x73, 0x74, 0x00, 0x00, 0x00, 0x02, 0x00, 0x00, 0x00, 
  0x01, 0x00, 0x00, 0x00, 0x10, 0x00, 0x00, 0x00, 0x00, 0x00, 0x16, 0x00, 
  0x20, 0x00, 0x1c, 0x00, 0x1b, 0x00, 0x14, 0x00, 0x10, 0x00, 0x0c, 0x00, 
  0x00, 0x00, 0x00, 0x00, 0x08, 0x00, 0x07, 0x00, 0x16, 0x00, 0x00, 0x00, 
  0x00, 0x00, 0x00, 0x01, 0x18, 0x00, 0x00, 0x00, 0x2c, 0x00, 0x00, 0x00, 
  0x48, 0x00, 0x00, 0x00, 0x01, 0x00, 0x00, 0x00, 0x00, 0x00, 0x00, 0x09, 
  0x58, 0x00, 0x00, 0x00, 0x02, 0x00, 0x00, 0x00, 0xff, 0xff, 0xff, 0xff, 
  0x5f, 0x00, 0x00, 0x00, 0x0c, 0x00, 0x0c, 0x00, 0x00, 0x00, 0x00, 0x00, 
  0x08, 0x00, 0x04, 0x00, 0x0c, 0x00, 0x00, 0x00, 0x08, 0x00, 0x00, 0x00, 
  0x10, 0x00, 0x00, 0x00, 0x01, 0x00, 0x00, 0x00, 0x00, 0x00, 0x00, 0x00, 
  0x00, 0x00, 0x00, 0x00, 0x01, 0x00, 0x00, 0x00, 0x27, 0xba, 0xc0, 0x3c, 
  0x17, 0x00, 0x00, 0x00, 0x73, 0x65, 0x72, 0x76, 0x69, 0x6e, 0x67, 0x5f, 
  0x64, 0x65, 0x66, 0x61, 0x75, 0x6c, 0x74, 0x5f, 0x69, 0x6e, 0x70, 0x75, 
  0x74, 0x3a, 0x30, 0x00, 0x02, 0x00, 0x00, 0x00, 0x01, 0x00, 0x00, 0x00, 
  0x5f, 0x00, 0x00, 0x00, 0x02, 0x00, 0x00, 0x00, 0x24, 0x00, 0x00, 0x00, 
  0x04, 0x00, 0x00, 0x00, 0xf0, 0xff, 0xff, 0xff, 0x0e, 0x00, 0x00, 0x00, 
  0x02, 0x00, 0x00, 0x00, 0x00, 0x00, 0x00, 0x0e, 0x0c, 0x00, 0x10, 0x00, 
  0x0f, 0x00, 0x00, 0x00, 0x08, 0x00, 0x04, 0x00, 0x0c, 0x00, 0x00, 0x00, 
  0x09, 0x00, 0x00, 0x00, 0x04, 0x00, 0x00, 0x00, 0x00, 0x00, 0x00, 0x09
};

#endif // MODEL_DATA_H
