#ifndef MODEL_DATA_H
#define MODEL_DATA_H

const unsigned int model_data_len = 6168;
const unsigned char model_data[] = {
  0x20, 0x00, 0x00, 0x00, 0x54, 0x46, 0x4c, 0x33, 0x00, 0x00, 0x00, 0x00, 
  0x14, 0x00, 0x20, 0x00, 0x1c, 0x00, 0x18, 0x00, 0x14, 0x00, 0x10, 0x00, 
  0x0c, 0x00, 0x00, 0x00, 0x08, 0x00, 0x04, 0x00, 0x14, 0x00, 0x00, 0x00, 
  0x1c, 0x00, 0x00, 0x00, 0x84, 0x00, 0x00, 0x00, 0x04, 0x01, 0x00, 0x00, 
  0x0c, 0x10, 0x00, 0x00, 0x1c, 0x10, 0x00, 0x00, 0xa8, 0x17, 0x00, 0x00, 
  0x03, 0x00, 0x00, 0x00, 0x01, 0x00, 0x00, 0x00, 0x04, 0x00, 0x00, 0x00, 
  0xa6, 0xef, 0xff, 0xff, 0x0c, 0x00, 0x00, 0x00, 0x1c, 0x00, 0x00, 0x00, 
  0x3c, 0x00, 0x00, 0x00, 0x0f, 0x00, 0x00, 0x00, 0x73, 0x65, 0x72, 0x76, 
  0x69, 0x6e, 0x67, 0x5f, 0x64, 0x65, 0x66, 0x61, 0x75, 0x6c, 0x74, 0x00, 
  0x01, 0x00, 0x00, 0x00, 0x04, 0x00, 0x00, 0x00, 0x70, 0xff, 0xff, 0xff, 
  0x07, 0x00, 0x00, 0x00, 0x04, 0x00, 0x00, 0x00, 0x08, 0x00, 0x00, 0x00, 
  0x6f, 0x75, 0x74, 0x70, 0x75, 0x74, 0x5f, 0x30, 0x00, 0x00, 0x00, 0x00, 
  0x01, 0x00, 0x00, 0x00, 0x04, 0x00, 0x00, 0x00, 0x86, 0xf0, 0xff, 0xff, 
  0x04, 0x00, 0x00, 0x00, 0x05, 0x00, 0x00, 0x00, 0x69, 0x6e, 0x70, 0x75, 
  0x74, 0x00, 0x00, 0x00, 0x03, 0x00, 0x00, 0x00, 0x5c, 0x00, 0x00, 0x00, 
  0x2c, 0x00, 0x00, 0x00, 0x04, 0x00, 0x00, 0x00, 0xb8, 0xff, 0xff, 0xff, 
  0x0b, 0x00, 0x00, 0x00, 0x04, 0x00, 0x00, 0x00, 0x13, 0x00, 0x00, 0x00, 
  0x43, 0x4f, 0x4e, 0x56, 0x45, 0x52, 0x53, 0x49, 0x4f, 0x4e, 0x5f, 0x4d, 
  0x45, 0x54, 0x41, 0x44, 0x41, 0x54, 0x41, 0x00, 0xdc, 0xff, 0xff, 0xff, 
  0x0a, 0x00, 0x00, 0x00, 0x04, 0x00, 0x00, 0x00, 0x13, 0x00, 0x00, 0x00, 
  0x6d, 0x69, 0x6e, 0x5f, 0x72, 0x75, 0x6e, 0x74, 0x69, 0x6d, 0x65, 0x5f, 
  0x76, 0x65, 0x72, 0x73, 0x69, 0x6f, 0x6e, 0x00, 0x08, 0x00, 0x0c, 0x00, 
  0x08, 0x00, 0x04, 0x00, 0x08, 0x00, 0x00, 0x00, 0x09, 0x00, 0x00, 0x00, 
  0x04, 0x00, 0x00, 0x00, 0x13, 0x00, 0x00, 0x00, 0x6d, 0x69, 0x6e, 0x5f, 
  0x72, 0x75, 0x6e, 0x74, 0x69, 0x6d, 0x65, 0x5f, 0x76, 0x65, 0x72, 0x73, 
  0x69, 0x6f, 0x6e, 0x00, 0x0c, 0x00, 0x00, 0x00, 0x04, 0x0f, 0x00, 0x00, 
  0xfc, 0x0e, 0x00, 0x00, 0xdc, 0x0e, 0x00, 0x00, 0xc4, 0x0c, 0x00, 0x00, 
  0xd4, 0x00, 0x00, 0x00, 0xcc, 0x00, 0x00, 0x00, 0xc4, 0x00, 0x00, 0x00, 
  0xbc, 0x00, 0x00, 0x00, 0xb4, 0x00, 0x00, 0x00, 0x94, 0x00, 0x00, 0x00, 
  0x74, 0x00, 0x00, 0x00, 0x04, 0x00, 0x00, 0x00, 0x52, 0xf1, 0xff, 0xff, 
  0x04, 0x00, 0x00, 0x00, 0x60, 0x00, 0x00, 0x00, 0x0c, 0x00, 0x00, 0x00, 
  0x08, 0x00, 0x0e, 0x00, 0x08, 0x00, 0x04, 0x00, 0x08, 0x00, 0x00, 0x00, 
  0x10, 0x00, 0x00, 0x00, 0x28, 0x00, 0x00, 0x00, 0x00, 0x00, 0x06, 0x00, 
  0x08, 0x00, 0x04, 0x00, 0x06, 0x00, 0x00, 0x00, 0x04, 0x00, 0x00, 0x00, 
  0x01, 0x00, 0x00, 0x00, 0xeb, 0x03, 0x00, 0x00, 0x0c, 0x00, 0x18, 0x00, 
  0x14, 0x00, 0x10, 0x00, 0x0c, 0x00, 0x04, 0x00, 0x0c, 0x00, 0x00, 0x00, 
  0xba, 0x35, 0x8f, 0xc9, 0x5a, 0x7a, 0x8c, 0x1a, 0x02, 0x00, 0x00, 0x00, 
  0x02, 0x00, 0x00, 0x00, 0x04, 0x00, 0x00, 0x00, 0x06, 0x00, 0x00, 0x00, 
  0x32, 0x2e, 0x31, 0x39, 0x2e, 0x30, 0x00, 0x00, 0xbe, 0xf1, 0xff, 0xff, 
  0x04, 0x00, 0x00, 0x00, 0x10, 0x00, 0x00, 0x00, 0x00, 0x00, 0x00, 0x00, 
  0x00, 0x00, 0x00, 0x00, 0x00, 0x00, 0x00, 0x00, 0x00, 0x00, 0x00, 0x00, 
  0xda, 0xf1, 0xff, 0xff, 0x04, 0x00, 0x00, 0x00, 0x10, 0x00, 0x00, 0x00, 
  0x31, 0x2e, 0x31, 0x34, 0x2e, 0x30, 0x00, 0x00, 0x00, 0x00, 0x00, 0x00, 
  0x00, 0x00, 0x00, 0x00, 0x28, 0xf1, 0xff, 0xff, 0x2c, 0xf1, 0xff, 0xff, 
  0x30, 0xf1, 0xff, 0xff, 0x34, 0xf1, 0xff, 0xff, 0x06, 0xf2, 0xff, 0xff, 
  0x04, 0x00, 0x00, 0x00, 0xe0, 0x0b, 0x00, 0x00, 0x12, 0x9f, 0x07, 0x8d, 
  0xd0, 0xf0, 0x2c, 0x26, 0xff, 0x0f, 0xa9, 0x62, 0x79, 0x72, 0x51, 0xb1, 
  0xc8, 0x6d, 0x2f, 0xdd, 0xec, 0xbe, 0xea, 0x88, 0xe1, 0x01, 0x7f, 0xfc, 
  0x02, 0xcb, 0x84, 0x23, 0x13, 0xa7, 0x7f, 0xf8, 0x39, 0x9a, 0x53, 0x3e, 
  0x25, 0xc8, 0x37, 0x94, 0xcc, 0xf3, 0xd3, 0xa7, 0x66, 0xe5, 0x4d, 0x4b, 
  0x1a, 0x96, 0xc7, 0x44, 0xcc, 0x0f, 0xd5, 0x2d, 0x14, 0xd6, 0xf6, 0xe4, 
  0x2a, 0x5d, 0x39, 0xd2, 0x63, 0xcd, 0xf5, 0xe8, 0x89, 0x24, 0x74, 0x1d, 
  0xef, 0x41, 0xdd, 0xe2, 0x2f, 0xae, 0xb4, 0xdb, 0x77, 0x4a, 0x7c, 0x39, 
  0xd5, 0xc7, 0xf6, 0xbd, 0x91, 0x73, 0xe8, 0xdf, 0x21, 0x4c, 0xfa, 0xae, 
  0x89, 0xb4, 0x21, 0x5b, 0x36, 0x44, 0x2a, 0x61, 0xd9, 0x9a, 0xa2, 0x44, 
  0xa9, 0x61, 0x8e, 0xa7, 0xb8, 0x9a, 0x71, 0x2f, 0xce, 0xb4, 0xe4, 0x0e, 
  0x4e, 0x02, 0xc2, 0xbf, 0xb3, 0xf7, 0xe6, 0xc7, 0x73, 0xc5, 0xbc, 0xaf, 
  0x12, 0x82, 0x91, 0x36, 0x47, 0xd8, 0x6a, 0x9e, 0x81, 0x2e, 0x58, 0x95, 
  0xd4, 0xca, 0x8d, 0x49, 0x13, 0xb2, 0x52, 0xb0, 0x52, 0x02, 0xf5, 0xaf, 
  0x59, 0x94, 0x1f, 0x78, 0x0c, 0x9b, 0xda, 0xbb, 0x1a, 0x13, 0x82, 0x56, 
  0x59, 0xcc, 0x86, 0xb7, 0x4c, 0xc4, 0x10, 0x2f, 0x04, 0xc6, 0x62, 0xd4, 
  0x70, 0x0c, 0xda, 0x88, 0xf4, 0x04, 0xb8, 0x8d, 0x30, 0x91, 0x3e, 0x16, 
  0xa6, 0x7f, 0x83, 0xdb, 0xe6, 0x6f, 0xeb, 0x23, 0x20, 0x57, 0x79, 0xa3, 
  0xdd, 0x2a, 0xfe, 0x4c, 0x9c, 0x30, 0x5a, 0x58, 0xaf, 0xf8, 0x01, 0xd0, 
  0x51, 0xd4, 0xd0, 0x07, 0x24, 0xe4, 0x2b, 0x5f, 0x45, 0x14, 0x98, 0x59, 
  0x97, 0xfa, 0x57, 0x7b, 0xc9, 0x5b, 0xfb, 0x10, 0x05, 0x41, 0x7e, 0xe3, 
  0x2e, 0x57, 0xc3, 0x77, 0x73, 0x2d, 0x10, 0x86, 0x00, 0x61, 0x28, 0x56, 
  0x5d, 0x7e, 0x88, 0x1d, 0x08, 0xdb, 0x0d, 0x6c, 0xbe, 0xb2, 0x2f, 0xdd, 
  0x41, 0x77, 0x8d, 0x3f, 0xd0, 0xf1, 0xf4, 0x68, 0xa9, 0xd2, 0x3d, 0xf2, 
  0xac, 0xaf, 0x9a, 0x51, 0xb5, 0xbd, 0x0f, 0x0a, 0x5b, 0x9b, 0x6f, 0x92, 
  0xcf, 0xe6, 0x7f, 0xcc, 0x49, 0xbc, 0x8a, 0xb1, 0xb2, 0x85, 0xaf, 0xf1, 
  0xbc, 0x46, 0x14, 0xc0, 0xb2, 0x47, 0x17, 0x58, 0xcc, 0x54, 0x32, 0x0f, 
  0x95, 0xff, 0x18, 0x0a, 0xe2, 0x01, 0x6a, 0xc6, 0x84, 0xb5, 0x6e, 0x39, 
  0xe2, 0xac, 0x7d, 0xcb, 0x78, 0x8b, 0xc0, 0xfa, 0xca, 0xc3, 0xd7, 0x11, 
  0x46, 0xe4, 0xe0, 0x00, 0x24, 0x09, 0xd5, 0xe0, 0xa7, 0x6a, 0x06, 0x34, 
  0x2d, 0x0f, 0x7e, 0xdb, 0x12, 0xfa, 0x35, 0x7b, 0x90, 0x5d, 0xf2, 0xc3, 
  0x0a, 0x6e, 0x5f, 0x1e, 0xa9, 0x6f, 0x3b, 0x8c, 0xc1, 0xab, 0xfc, 0x91, 
  0x12, 0xe1, 0xc9, 0x76, 0xae, 0xe6, 0x94, 0x2f, 0x74, 0x20, 0x8f, 0xe9, 
  0x3c, 0x70, 0x2d, 0x41, 0xdb, 0x32, 0xa5, 0x4a, 0x65, 0x92, 0xff, 0xd5, 
  0x93, 0x75, 0xc2, 0xc9, 0x76, 0xd6, 0xba, 0x6f, 0x7b, 0x43, 0x70, 0x82, 
  0xfe, 0x62, 0x09, 0x01, 0xac, 0x49, 0x42, 0xfd, 0xb8, 0x32, 0xf5, 0xdd, 
  0x51, 0x3f, 0x3e, 0x4e, 0x0f, 0x50, 0x9a, 0x0e, 0x02, 0x67, 0x39, 0xad, 
  0x3d, 0x83, 0xd1, 0xcc, 0xb0, 0xd8, 0x47, 0xcd, 0xb2, 0x0c, 0x21, 0xbc, 
  0xab, 0x65, 0x70, 0xa3, 0x8b, 0x29, 0xe6, 0xd5, 0x24, 0xca, 0x06, 0x64, 
  0xeb, 0x8b, 0xfb, 0x1f, 0xca, 0x59, 0x81, 0xed, 0xe3, 0xe2, 0x8b, 0x53, 
  0x09, 0x10, 0xf2, 0xde, 0xd3, 0xb7, 0x41, 0x56, 0x1e, 0x21, 0xeb, 0x04, 
  0x18, 0xf5, 0xd8, 0x3e, 0x10, 0x47, 0x91, 0x29, 0xa3, 0xee, 0x39, 0x94, 
  0x65, 0x39, 0x07, 0xfe, 0x41, 0xdd, 0xe4, 0x88, 0x6b, 0x9b, 0x01, 0x97, 
  0xae, 0x36, 0x7f, 0x03, 0x97, 0xdf, 0x87, 0x9a, 0x24, 0x17, 0x23, 0xdd, 
  0xed, 0x11, 0xd1, 0xa6, 0xe6, 0xd8, 0x36, 0x08, 0x76, 0xca, 0x1a, 0x97, 
  0x8e, 0xc1, 0x2c, 0x76, 0xd0, 0x8c, 0xd7, 0x03, 0xa3, 0x6d, 0x26, 0xdc, 
  0x7a, 0x9c, 0xb6, 0xd9, 0x84, 0x7b, 0x6b, 0xbb, 0x53, 0x12, 0x4d, 0x14, 
  0x4b, 0x43, 0xf7, 0xda, 0x51, 0xa4, 0xaa, 0x77, 0xcc, 0xab, 0xa0, 0x8d, 
  0x0d, 0xab, 0x24, 0x5b, 0x9e, 0xc5, 0xd8, 0x8f, 0x89, 0x8e, 0x7d, 0xef, 
  0xa7, 0x18, 0xd2, 0x01, 0x1d, 0xb8, 0x56, 0x51, 0x6c, 0x6f, 0x7b, 0xd0, 
  0xa1, 0x81, 0x88, 0x8f, 0x73, 0x60, 0x63, 0xd3, 0x60, 0xb9, 0xf3, 0xa1, 
  0xfb, 0x08, 0x6a, 0xea, 0xdc, 0x01, 0xc5, 0x1b, 0x30, 0xa7, 0x6d, 0x30, 
  0xf0, 0xaa, 0x1c, 0x63, 0xe8, 0xdd, 0x57, 0xf9, 0x85, 0x46, 0x72, 0x25, 
  0x71, 0x90, 0x0c, 0xb2, 0x61, 0x22, 0xaf, 0x51, 0x64, 0x96, 0x85, 0xdf, 
  0x69, 0x12, 0x3e, 0x76, 0xd8, 0x19, 0x25, 0x0e, 0x0a, 0xc7, 0xd8, 0xc2, 
  0x96, 0xb9, 0xe3, 0x9e, 0xcc, 0x61, 0x3b, 0xf2, 0x13, 0x04, 0xfe, 0x71, 
  0xb5, 0x24, 0x69, 0xbc, 0xe6, 0x65, 0x85, 0x72, 0x69, 0x4b, 0x56, 0x98, 
  0x8a, 0x06, 0xff, 0xbe, 0x73, 0xe6, 0x00, 0xb4, 0x1f, 0x9e, 0x5f, 0x7f, 
  0x6b, 0xbf, 0xfb, 0x29, 0xa8, 0xd4, 0x05, 0xb2, 0x94, 0x1a, 0x3c, 0xee, 
  0xb9, 0xc8, 0x1c, 0x56, 0x7c, 0x5f, 0xb8, 0x58, 0x5c, 0xb2, 0x2f, 0xb3, 
  0x5e, 0x17, 0x94, 0xba, 0x92, 0xf5, 0x3c, 0x7c, 0x23, 0x22, 0xd2, 0xfb, 
  0xc7, 0xc2, 0xc3, 0x69, 0xb9, 0xcd, 0x6a, 0x3b, 0x9f, 0x98, 0xfe, 0x8c, 
  0xbb, 0x3b, 0x50, 0x32, 0x90, 0x4f, 0xd5, 0xfa, 0x44, 0x1a, 0xc7, 0x8c, 
  0x7f, 0x06, 0x0a, 0x03, 0xe4, 0xfc, 0xca, 0xcd, 0xd9, 0x68, 0x72, 0x3d, 
  0x66, 0x17, 0x0c, 0x55, 0xd6, 0x41, 0x42, 0xf5, 0x83, 0xfb, 0xac, 0xe1, 
  0x6f, 0x48, 0x70, 0x6c, 0xbd, 0xf5, 0xab, 0x85, 0xde, 0x18, 0x40, 0xd6, 
  0x47, 0x9b, 0xe3, 0xfb, 0x4f, 0xc0, 0xec, 0x54, 0xd7, 0x40, 0xf3, 0x15, 
  0x1b, 0x1f, 0xdf, 0x35, 0x94, 0xb9, 0x40, 0x5f, 0x90, 0x95, 0x87, 0x12, 
  0x3c, 0x7f, 0x79, 0x44, 0x38, 0x3a, 0xc3, 0xd9, 0xc5, 0x34, 0xdd, 0xa3, 
  0xd8, 0xd7, 0xab, 0xba, 0xe4, 0xf4, 0xf4, 0x3d, 0x40, 0x8f, 0xed, 0x87, 
  0x2c, 0xbb, 0x3a, 0xc5, 0x44, 0x53, 0x30, 0x72, 0x4f, 0x0b, 0x77, 0x16, 
  0x14, 0xbd, 0x1c, 0xce, 0x4b, 0x65, 0x15, 0x03, 0x7b, 0xcc, 0xfa, 0x30, 
  0xe8, 0x0d, 0x66, 0x4c, 0xaa, 0x5d, 0x5f, 0x40, 0x22, 0xe1, 0x1b, 0x84, 
  0x0a, 0x04, 0xf4, 0xb2, 0xd4, 0x86, 0x4f, 0x03, 0x2e, 0x5d, 0x40, 0xff, 
  0xa9, 0x40, 0x3a, 0x3f, 0x86, 0x6c, 0xab, 0x88, 0x43, 0xb4, 0x76, 0xb6, 
  0x04, 0xf2, 0x33, 0xf5, 0x8b, 0xa7, 0x24, 0xfe, 0x49, 0x0f, 0x99, 0xc3, 
  0xbe, 0x48, 0xaf, 0x2e, 0xc6, 0x1b, 0x9b, 0x3b, 0xe5, 0x57, 0x8f, 0x25, 
  0x6b, 0xb3, 0x81, 0x53, 0xeb, 0xe9, 0x34, 0xb3, 0x54, 0xf4, 0x67, 0xd8, 
  0x5d, 0x13, 0x51, 0x8b, 0x91, 0x02, 0x84, 0xfc, 0x88, 0xd7, 0x62, 0x38, 
  0x0f, 0x61, 0xf8, 0x9d, 0xa3, 0xa4, 0x40, 0x3d, 0xbd, 0xae, 0x66, 0x35, 
  0x6d, 0x1a, 0x7f, 0x79, 0x27, 0xd5, 0x01, 0xf1, 0xf9, 0x20, 0xa6, 0xc7, 
  0x5b, 0x3e, 0xee, 0x97, 0xd1, 0xb9, 0x30, 0xce, 0x1a, 0xc8, 0x33, 0x83, 
  0x05, 0x94, 0xd4, 0x75, 0x14, 0x00, 0x6f, 0xd5, 0x10, 0x4b, 0xfb, 0x47, 
  0x93, 0xda, 0xd4, 0x63, 0xe8, 0xaa, 0x35, 0x67, 0x15, 0xc5, 0x6b, 0xc8, 
  0x89, 0xf7, 0x4c, 0xe0, 0x18, 0x1f, 0x9c, 0x02, 0x23, 0x16, 0xda, 0xd5, 
  0x44, 0xc6, 0xd9, 0x59, 0xba, 0x4c, 0x50, 0xb3, 0x71, 0x76, 0x46, 0xaa, 
  0x67, 0xe2, 0x0b, 0x09, 0xb1, 0x66, 0x93, 0xa5, 0xd7, 0xa1, 0xf4, 0x33, 
  0x02, 0x93, 0xb5, 0x1c, 0xf7, 0x00, 0x71, 0xdf, 0xad, 0x55, 0x1f, 0x2a, 
  0xd0, 0x62, 0x89, 0x8e, 0x32, 0x42, 0xa9, 0xfe, 0xe4, 0x7b, 0x9e, 0x7c, 
  0xb6, 0x53, 0x7b, 0x88, 0x52, 0xa6, 0x90, 0x2f, 0x8f, 0x5a, 0x81, 0xb4, 
  0xbd, 0x6d, 0xa5, 0xcb, 0x0e, 0x5f, 0xc1, 0x17, 0x59, 0xcd, 0x82, 0xa4, 
  0x8e, 0x8f, 0x96, 0xb0, 0x41, 0x6b, 0x24, 0x89, 0xd4, 0x9b, 0xae, 0xa4, 
  0xa7, 0xcb, 0xad, 0x0b, 0x48, 0x12, 0x22, 0x21, 0x88, 0xb5, 0x39, 0x71, 
  0xb2, 0xbe, 0xec, 0x05, 0x2a, 0x09, 0x8b, 0xdb, 0x66, 0xa8, 0x61, 0xdd, 
  0x1d, 0x7a, 0xae, 0xe9, 0xf7, 0x8c, 0x39, 0x0a, 0x87, 0x30, 0x3a, 0xe6, 
  0xde, 0x8e, 0x96, 0x7b, 0xc1, 0x17, 0x36, 0xe9, 0x0c, 0xf6, 0xb2, 0x41, 
  0x03, 0xfa, 0xf6, 0x5a, 0xa7, 0x7a, 0x54, 0x51, 0x1b, 0x8a, 0xd0, 0x9c, 
  0xc1, 0x47, 0x86, 0x0e, 0x75, 0x4b, 0x31, 0x57, 0xd0, 0x6b, 0x7f, 0x09, 
  0x41, 0x58, 0x83, 0xbd, 0x98, 0x89, 0x69, 0xdc, 0x8f, 0x84, 0x90, 0x45, 
  0x34, 0x3e, 0x58, 0x30, 0x98, 0xdd, 0xcf, 0x12, 0x39, 0x33, 0x2b, 0x7e, 
  0x4a, 0x8c, 0x48, 0x07, 0xfb, 0xdb, 0xfd, 0xb7, 0x2f, 0x47, 0x96, 0x04, 
  0x87, 0xc8, 0xf4, 0x30, 0x7f, 0x1f, 0x18, 0x96, 0xb4, 0xf3, 0xf7, 0x1c, 
  0x5e, 0x31, 0xda, 0xcf, 0x14, 0xcd, 0x9e, 0xb6, 0x76, 0x4d, 0x2b, 0x90, 
  0x21, 0x4c, 0xef, 0x46, 0x70, 0xbd, 0x82, 0x5d, 0x7e, 0xf5, 0x68, 0x7f, 
  0xe6, 0x3b, 0x65, 0xb4, 0x66, 0xc6, 0x92, 0x1d, 0x49, 0xca, 0x4f, 0x0e, 
  0xa9, 0x42, 0xfa, 0x0c, 0xfc, 0x1a, 0xdb, 0x0a, 0x85, 0xc8, 0xca, 0xb4, 
  0xfe, 0xac, 0xbb, 0x33, 0xe8, 0x47, 0xe2, 0x74, 0xce, 0x95, 0xa7, 0x0a, 
  0xc9, 0xab, 0x9b, 0x4c, 0xe7, 0x25, 0x77, 0xc4, 0x07, 0x7b, 0x98, 0x24, 
  0x7d, 0xb3, 0x32, 0x19, 0xe6, 0x12, 0x6d, 0x63, 0xb7, 0x20, 0x9d, 0xb0, 
  0x9b, 0x49, 0x58, 0xad, 0xb1, 0x2f, 0x6d, 0xd1, 0x0c, 0xe5, 0xd5, 0xf3, 
  0xa6, 0xdc, 0x65, 0x7a, 0xc7, 0xf3, 0xc2, 0x3a, 0xba, 0xc9, 0x2d, 0x53, 
  0xf0, 0xa6, 0x05, 0x26, 0xab, 0x79, 0xb5, 0x08, 0x32, 0x20, 0x7a, 0x9a, 
  0x7e, 0x92, 0x4f, 0xf7, 0xf5, 0x18, 0xf6, 0x7b, 0xbb, 0x7d, 0x63, 0x9e, 
  0xda, 0xf9, 0x70, 0xf4, 0x15, 0x49, 0x20, 0xf3, 0x4e, 0x0d, 0x00, 0x03, 
  0x9d, 0xb3, 0xc0, 0x85, 0x23, 0x3a, 0xb7, 0x40, 0x0f, 0x9e, 0xb0, 0x23, 
  0x0b, 0x79, 0xd7, 0xe2, 0xeb, 0xe5, 0xbb, 0x20, 0x12, 0x4f, 0xa0, 0xb2, 
  0x60, 0x75, 0x8f, 0xd0, 0x7e, 0x0d, 0xe6, 0xc2, 0x4f, 0xe2, 0x4f, 0x1a, 
  0x82, 0xc7, 0x94, 0x1c, 0xcf, 0xe1, 0x95, 0x33, 0x30, 0x7c, 0x7f, 0x4d, 
  0x92, 0xd0, 0xb1, 0x11, 0x5c, 0x03, 0x3d, 0x9a, 0x98, 0x52, 0x77, 0x83, 
  0xf6, 0xc4, 0x1a, 0x0b, 0x7c, 0xd5, 0x1f, 0x04, 0x6c, 0x3d, 0x89, 0x33, 
  0x41, 0x83, 0x1d, 0x97, 0xce, 0x37, 0x6f, 0x82, 0xca, 0x59, 0xfb, 0x1b, 
  0xd2, 0x7d, 0x31, 0x56, 0xcc, 0x38, 0xba, 0x5b, 0xfe, 0xca, 0xa7, 0xb1, 
  0xd0, 0x2a, 0x3c, 0xab, 0x68, 0x39, 0x38, 0xd4, 0xc1, 0x70, 0xdb, 0x90, 
  0x3a, 0xb9, 0xb0, 0x1a, 0x18, 0xfa, 0x7a, 0x35, 0x49, 0x30, 0xf7, 0x81, 
  0xe5, 0x1f, 0xcc, 0x85, 0x83, 0x43, 0x0e, 0x61, 0x7f, 0xc6, 0xb9, 0x52, 
  0x69, 0x10, 0x17, 0xf0, 0xe9, 0xdf, 0x1c, 0xd3, 0x49, 0x65, 0xe6, 0x5b, 
  0x74, 0xea, 0x0c, 0x74, 0xd1, 0x08, 0xcb, 0xad, 0xfa, 0x1b, 0xcf, 0x7f, 
  0x3c, 0xf0, 0xfb, 0x90, 0xe6, 0x8d, 0x57, 0x67, 0xa7, 0x42, 0xee, 0xc1, 
  0xfc, 0x31, 0x65, 0xa8, 0xc5, 0x62, 0x5e, 0x2b, 0xba, 0xd0, 0xf9, 0xe7, 
  0x3d, 0x4c, 0x79, 0x3b, 0x94, 0x8c, 0x07, 0x2f, 0xec, 0xba, 0x81, 0xf5, 
  0x65, 0x84, 0x5b, 0xd8, 0x9c, 0xf0, 0x5e, 0x7f, 0x96, 0x94, 0x0f, 0x05, 
  0xfa, 0x92, 0x15, 0xb4, 0x72, 0xbc, 0xe0, 0xa4, 0x43, 0xc1, 0xa7, 0x79, 
  0xa9, 0xa1, 0x8c, 0x90, 0xee, 0x74, 0x88, 0xff, 0x14, 0xaf, 0x34, 0xc8, 
  0x46, 0x6e, 0xad, 0x6b, 0x83, 0xa6, 0x45, 0x90, 0xcd, 0x56, 0x48, 0xdb, 
  0xbd, 0x45, 0x3f, 0x23, 0x3c, 0x64, 0xab, 0x63, 0x1e, 0x86, 0x73, 0xf6, 
  0xba, 0xb7, 0x91, 0xb5, 0xff, 0x32, 0x4c, 0x8c, 0x3f, 0x4f, 0x37, 0x97, 
  0x8a, 0x6f, 0x9e, 0x67, 0xf1, 0x89, 0x05, 0xeb, 0x31, 0x4a, 0xf5, 0xef, 
  0x89, 0xc5, 0x35, 0x18, 0x6c, 0xc3, 0x5f, 0x87, 0xf1, 0x79, 0x20, 0x6e, 
  0x83, 0x7f, 0xbb, 0x44, 0xa4, 0x6a, 0x4e, 0xe9, 0x63, 0x02, 0x8c, 0x05, 
  0x5f, 0xcc, 0xf6, 0xa1, 0x8f, 0x45, 0xa5, 0x49, 0x9a, 0x7f, 0xe8, 0x6d, 
  0xfc, 0xc3, 0xe1, 0x78, 0xc8, 0x0b, 0x13, 0x29, 0x5e, 0x75, 0xdd, 0x9c, 
  0x66, 0xc5, 0x9e, 0xbe, 0x41, 0x22, 0x4e, 0xb9, 0xaf, 0x0f, 0x6b, 0xc8, 
  0x2c, 0xc9, 0xb7, 0x82, 0xe4, 0x45, 0xb0, 0x56, 0xbb, 0x50, 0x48, 0xf0, 
  0xb5, 0x84, 0x45, 0x8b, 0xce, 0x4a, 0xfd, 0xb6, 0xf2, 0x69, 0x12, 0xc5, 
  0x2e, 0x3a, 0xb2, 0x6b, 0x06, 0x33, 0x5e, 0x21, 0x0b, 0x6b, 0x33, 0x3a, 
  0x86, 0x3b, 0x69, 0xb1, 0x2e, 0x92, 0x41, 0x01, 0xf4, 0x42, 0x05, 0x42, 
  0x18, 0x6e, 0x44, 0x64, 0x0d, 0xa7, 0x15, 0x8c, 0x35, 0x97, 0x39, 0xfa, 
  0x77, 0x55, 0x71, 0xdc, 0x95, 0xfe, 0xcd, 0x78, 0xa4, 0xf1, 0x85, 0x92, 
  0x81, 0x4d, 0x7d, 0x54, 0x33, 0x54, 0x4b, 0xcc, 0x7d, 0xd7, 0xeb, 0x4e, 
  0x0d, 0x79, 0x53, 0xa4, 0x1d, 0x35, 0x1a, 0xe5, 0xb8, 0x9f, 0x6a, 0xd4, 
  0x01, 0x08, 0x94, 0x02, 0xd3, 0xcc, 0xc3, 0xa6, 0xe6, 0x0b, 0x11, 0x93, 
  0x15, 0x3f, 0xa3, 0x15, 0xe0, 0x4a, 0xaf, 0x33, 0xfc, 0xc8, 0xd9, 0xc1, 
  0xa8, 0x88, 0x06, 0x8c, 0x48, 0xb5, 0x28, 0xbb, 0xbd, 0xc8, 0x4e, 0x05, 
  0x32, 0x60, 0x51, 0x13, 0x55, 0x3d, 0xb7, 0x2a, 0xaf, 0x4c, 0xf9, 0x64, 
  0x1e, 0x20, 0x45, 0x9d, 0x79, 0xa0, 0xb5, 0x67, 0x1d, 0x16, 0xd1, 0x78, 
  0xa3, 0x3b, 0xfc, 0x42, 0xf9, 0x59, 0xeb, 0x4f, 0x52, 0xdd, 0xeb, 0xab, 
  0xa9, 0x0b, 0xed, 0x9c, 0x5a, 0x99, 0x1f, 0xc3, 0x67, 0x40, 0x61, 0xfe, 
  0xd0, 0x72, 0xe8, 0x67, 0x0c, 0x30, 0xc9, 0xd3, 0x6a, 0x00, 0xc5, 0x7f, 
  0x57, 0x95, 0xec, 0x4e, 0x94, 0x5a, 0x0d, 0x5c, 0xbf, 0x58, 0x01, 0x15, 
  0xad, 0x8d, 0x28, 0xb4, 0x2e, 0xaa, 0x83, 0x41, 0x5f, 0x43, 0x7f, 0x2b, 
  0xdf, 0xe2, 0xec, 0xd3, 0x8b, 0x0a, 0x16, 0x32, 0x32, 0x45, 0xfd, 0x26, 
  0x56, 0xaf, 0xbb, 0xa6, 0xe3, 0xaf, 0x2a, 0xa4, 0x99, 0x59, 0x0a, 0xef, 
  0xd8, 0x08, 0xc7, 0x1f, 0x7a, 0x5b, 0x98, 0x60, 0x02, 0x47, 0xdb, 0xdc, 
  0x66, 0x9b, 0xf5, 0x09, 0x74, 0x42, 0xb0, 0x97, 0xd7, 0x81, 0xf7, 0x4a, 
  0xeb, 0xf8, 0xae, 0x2e, 0xbb, 0xab, 0x90, 0x5a, 0x56, 0xfe, 0x0d, 0x09, 
  0xa3, 0x90, 0x2e, 0x4d, 0xc1, 0xd0, 0x14, 0x70, 0x83, 0x19, 0x75, 0x25, 
  0xf8, 0x96, 0xa6, 0x95, 0x7b, 0x00, 0xe7, 0x25, 0x59, 0x90, 0x01, 0x60, 
  0x39, 0x0f, 0x8e, 0xc9, 0x1f, 0x92, 0xfe, 0x98, 0x9e, 0xc3, 0x5e, 0x3f, 
  0x11, 0x81, 0x5c, 0xfc, 0x89, 0x5f, 0x98, 0xec, 0xad, 0x22, 0x39, 0xb9, 
  0x32, 0x60, 0xb9, 0xd5, 0xd1, 0x4a, 0x6c, 0x93, 0x88, 0x83, 0x42, 0x32, 
  0x86, 0x54, 0xc6, 0xd9, 0xc1, 0x7a, 0xad, 0xfc, 0x28, 0xd5, 0x99, 0x72, 
  0x93, 0xe6, 0x44, 0x79, 0xe3, 0x1a, 0x6b, 0x73, 0x36, 0xcd, 0xc7, 0x8d, 
  0x9f, 0x12, 0x49, 0x57, 0xbb, 0xd7, 0x6f, 0x18, 0x78, 0x4d, 0x0b, 0x5a, 
  0xb2, 0xe2, 0xa5, 0xb9, 0x1f, 0x44, 0xec, 0x09, 0xea, 0x00, 0xde, 0xaf, 
  0x89, 0xb3, 0xca, 0x72, 0xfc, 0x19, 0x76, 0xeb, 0xc4, 0xe7, 0xea, 0x1c, 
  0x4f, 0x43, 0xca, 0x81, 0xef, 0xd4, 0x88, 0xa2, 0x40, 0x67, 0xcd, 0x02, 
  0x58, 0xc5, 0x92, 0xcd, 0xe5, 0x58, 0x16, 0x3f, 0x1b, 0x0b, 0x19, 0x8e, 
  0x15, 0x10, 0xa4, 0xd0, 0x3d, 0x28, 0xb8, 0xa1, 0xd3, 0x8e, 0x0d, 0xe0, 
  0x45, 0x38, 0x91, 0xd5, 0x5d, 0xf9, 0xd7, 0xc3, 0x79, 0x5f, 0xea, 0xec, 
  0x73, 0xba, 0xfd, 0x6c, 0x12, 0xe5, 0x1f, 0x39, 0x8f, 0x53, 0xc2, 0xb2, 
  0x35, 0x22, 0xfc, 0xfd, 0xf7, 0x05, 0x8c, 0x47, 0x0c, 0x8d, 0x7b, 0x46, 
  0xb6, 0x17, 0x61, 0xb5, 0x59, 0xea, 0x19, 0x22, 0x84, 0xd1, 0x7d, 0xe6, 
  0x75, 0xb6, 0xf6, 0x7d, 0x43, 0x81, 0x3d, 0x31, 0x24, 0x8a, 0x8b, 0xe4, 
  0x41, 0x05, 0x7c, 0xf9, 0x91, 0xe8, 0x1f, 0xeb, 0x70, 0x98, 0xb5, 0xa1, 
  0xbe, 0xf8, 0xa9, 0x2a, 0x8a, 0x19, 0xa9, 0x31, 0xf8, 0xe5, 0xe6, 0x1b, 
  0xdb, 0xd6, 0x84, 0x0a, 0x7b, 0x7e, 0xbf, 0xb5, 0x12, 0x41, 0xde, 0x64, 
  0xad, 0x2d, 0x86, 0x7f, 0xf0, 0x18, 0xf5, 0x64, 0xbb, 0x2c, 0xab, 0x76, 
  0xc0, 0x4a, 0x3b, 0xd7, 0x94, 0xc5, 0x89, 0x73, 0x1f, 0x68, 0x3d, 0x90, 
  0x0c, 0x76, 0x88, 0x12, 0xc8, 0x14, 0x5c, 0xaf, 0x45, 0x1c, 0x68, 0xfb, 
  0x90, 0x02, 0xf7, 0x66, 0xfc, 0x86, 0x03, 0x0a, 0x65, 0x03, 0x44, 0xb1, 
  0x05, 0x6c, 0xe0, 0x41, 0x2f, 0xd7, 0xcb, 0xc4, 0xe7, 0x38, 0xe1, 0x98, 
  0x6d, 0xde, 0xc4, 0xc4, 0x54, 0x21, 0x0c, 0xa9, 0x76, 0x14, 0x44, 0x85, 
  0xd3, 0x05, 0xaf, 0x9b, 0xad, 0xf5, 0x27, 0x81, 0x01, 0xee, 0xf2, 0x72, 
  0xa9, 0x5a, 0x7b, 0x1f, 0x95, 0x2e, 0x4d, 0xad, 0xef, 0x47, 0xe4, 0x81, 
  0xa8, 0xde, 0x65, 0x4e, 0xb8, 0x57, 0xfb, 0xfb, 0x54, 0xdf, 0xd2, 0x1a, 
  0x41, 0x10, 0x2f, 0xbc, 0x48, 0xbe, 0x16, 0xfd, 0xe1, 0x75, 0x0f, 0xfa, 
  0x3b, 0x45, 0xe1, 0x44, 0x48, 0x31, 0x48, 0x19, 0x87, 0xc3, 0x29, 0x21, 
  0xf1, 0xa5, 0x39, 0x68, 0x31, 0xa0, 0x95, 0x6c, 0x46, 0x6b, 0x23, 0xb7, 
  0xbc, 0x92, 0xe0, 0x13, 0x4d, 0x85, 0xba, 0xe2, 0x71, 0xb8, 0xaf, 0xf3, 
  0x93, 0x22, 0x26, 0x47, 0x71, 0x11, 0xdd, 0x60, 0xa2, 0x93, 0xe5, 0x76, 
  0xc9, 0x14, 0xe4, 0xd4, 0x98, 0xa9, 0x81, 0xf9, 0xd6, 0xe7, 0xca, 0x79, 
  0x64, 0x4a, 0x18, 0x5d, 0x36, 0xfe, 0x50, 0x7d, 0xe1, 0x8c, 0x4b, 0xd7, 
  0x12, 0xb7, 0xb4, 0xd3, 0x9b, 0x44, 0xd2, 0x45, 0x0e, 0x7e, 0x6e, 0x53, 
  0x59, 0xad, 0x2f, 0x69, 0xe7, 0x9d, 0xa0, 0x5b, 0xba, 0x29, 0xc7, 0xf9, 
  0xf9, 0xac, 0x2c, 0xd9, 0x10, 0x29, 0xd9, 0x08, 0x6f, 0xf8, 0xbf, 0x7a, 
  0x8a, 0x3a, 0x20, 0xa5, 0x47, 0xa9, 0xd1, 0x05, 0x55, 0x61, 0x36, 0xf2, 
  0xea, 0xcb, 0x17, 0x9f, 0x34, 0x79, 0xb5, 0x7f, 0xd1, 0x00, 0xdc, 0xe1, 
  0x20, 0xdc, 0xbf, 0x1f, 0xc4, 0x88, 0xc3, 0x43, 0xd7, 0x4e, 0x8e, 0x7f, 
  0x7a, 0x2b, 0xbb, 0xdc, 0x1b, 0x4d, 0xb9, 0xaf, 0xc8, 0x53, 0x3a, 0x19, 
  0x15, 0xc5, 0x12, 0x77, 0xf5, 0xdc, 0xbf, 0xfd, 0x05, 0xbc, 0xf1, 0xaf, 
  0xf6, 0x20, 0x98, 0xc4, 0xe3, 0xa1, 0x12, 0x35, 0xc9, 0x21, 0xc1, 0x21, 
  0x9c, 0xdd, 0x8c, 0x7c, 0x5b, 0x11, 0xf1, 0x26, 0x4d, 0x17, 0xec, 0xac, 
  0x73, 0xdf, 0xc0, 0x85, 0x1a, 0x47, 0x7e, 0x9c, 0x1d, 0xb6, 0x0b, 0xf9, 
  0xa7, 0xff, 0x5a, 0xa1, 0x7f, 0xd3, 0x84, 0xfb, 0x87, 0x00, 0x9a, 0x3d, 
  0x3f, 0x9b, 0x4f, 0xd5, 0x92, 0x78, 0x55, 0x74, 0x11, 0x1a, 0x7e, 0x56, 
  0xd6, 0xbe, 0xde, 0xbd, 0x9e, 0x15, 0x85, 0x10, 0x8d, 0x7e, 0x42, 0xfa, 
  0xc3, 0xb1, 0x70, 0x67, 0xbf, 0x47, 0x55, 0xdc, 0x60, 0x06, 0x77, 0xbc, 
  0x1e, 0x69, 0xa5, 0x4d, 0xdd, 0x17, 0x3e, 0xf9, 0x04, 0x26, 0x42, 0xaa, 
  0x24, 0x5a, 0xef, 0x27, 0x40, 0xe7, 0x2f, 0x00, 0x2c, 0x8e, 0xff, 0x77, 
  0xec, 0x8f, 0x00, 0x87, 0x9b, 0x6d, 0x36, 0xc4, 0x4f, 0x0a, 0xfb, 0x3d, 
  0xd8, 0x03, 0x0d, 0x7d, 0x3c, 0x88, 0xee, 0x72, 0x2e, 0xd6, 0xb3, 0x1d, 
  0xd8, 0x1b, 0x65, 0x20, 0x16, 0x7f, 0xf4, 0xb2, 0x09, 0x47, 0xd9, 0x1d, 
  0x65, 0x3e, 0x4c, 0xc6, 0xf0, 0xde, 0xd6, 0x4d, 0xa5, 0x0f, 0xc6, 0x17, 
  0x2f, 0xae, 0x76, 0x28, 0x6a, 0x04, 0xdc, 0x03, 0xd1, 0x8c, 0x6b, 0x51, 
  0x8f, 0xd6, 0x88, 0x5d, 0xfd, 0x3b, 0xd6, 0x67, 0x24, 0x92, 0x14, 0x01, 
  0x18, 0x05, 0xac, 0xd6, 0xf0, 0x53, 0xa7, 0xd0, 0xf0, 0x83, 0x07, 0x41, 
  0x4a, 0xb0, 0xb4, 0xf3, 0x69, 0x49, 0xae, 0x2f, 0x2b, 0xeb, 0xf1, 0x5d, 
  0xa4, 0xfd, 0x88, 0x2d, 0x91, 0x98, 0x4b, 0x81, 0x9e, 0x64, 0x22, 0xfc, 
  0x78, 0x19, 0x42, 0x29, 0x51, 0xca, 0x73, 0x6f, 0xfc, 0x92, 0x74, 0x05, 
  0xec, 0xe0, 0xe8, 0x35, 0x5c, 0xcd, 0x05, 0xb2, 0x82, 0x4f, 0x43, 0x06, 
  0x97, 0x19, 0x45, 0xf5, 0x1a, 0x31, 0xbe, 0x2d, 0x47, 0xa4, 0x08, 0x67, 
  0x5a, 0xcc, 0x47, 0xde, 0x2b, 0x65, 0x5a, 0xd9, 0xed, 0x1a, 0x2a, 0xdd, 
  0xdb, 0x3d, 0xf8, 0xef, 0x1d, 0x4e, 0x13, 0x40, 0xc0, 0x64, 0xe2, 0x28, 
  0x48, 0x38, 0xe7, 0x25, 0xd2, 0x41, 0x4a, 0x7f, 0x3b, 0x84, 0xbc, 0x78, 
  0x21, 0x88, 0xae, 0x9e, 0x56, 0xd9, 0xbd, 0x57, 0xd3, 0xaa, 0x34, 0x8a, 
  0x72, 0x98, 0x2d, 0xe1, 0xcd, 0x31, 0x14, 0xd2, 0x33, 0x02, 0x18, 0x0c, 
  0x9d, 0x09, 0x05, 0xd3, 0x9f, 0xc0, 0x50, 0x1c, 0xd9, 0x84, 0x2d, 0x21, 
  0xe7, 0x82, 0xa2, 0x90, 0xd6, 0x5a, 0xc0, 0xd4, 0x63, 0x57, 0xa2, 0x15, 
  0x61, 0x75, 0xd0, 0x4a, 0x65, 0xae, 0x20, 0xb0, 0x94, 0x23, 0x30, 0xc3, 
  0x83, 0x4b, 0x19, 0xc7, 0xf9, 0x78, 0x65, 0x3c, 0x0c, 0x69, 0x3b, 0xf3, 
  0xb8, 0x4f, 0xd2, 0x95, 0xf1, 0x71, 0x1c, 0xf7, 0x29, 0xe9, 0x7c, 0xb6, 
  0x61, 0xb6, 0xbc, 0x68, 0x7d, 0x0a, 0x0e, 0x40, 0x41, 0xdc, 0xd4, 0x81, 
  0xf2, 0x0b, 0x91, 0xc3, 0x92, 0x47, 0x02, 0x50, 0xe6, 0x01, 0x8e, 0x02, 
  0x1a, 0xd7, 0xb8, 0x5f, 0xbd, 0x48, 0x71, 0x92, 0x1b, 0x01, 0x81, 0x24, 
  0x54, 0xb8, 0x5c, 0x01, 0xca, 0x9b, 0xea, 0xd4, 0x07, 0xcc, 0x11, 0x0e, 
  0x1a, 0xe3, 0xfd, 0x8f, 0xbc, 0x68, 0x27, 0xc8, 0x2b, 0xed, 0x1f, 0xe1, 
  0x4a, 0xba, 0x37, 0x8f, 0x1b, 0x99, 0x0d, 0xc2, 0xf3, 0x8c, 0xf4, 0x46, 
  0xb6, 0x3a, 0xa7, 0x26, 0xb0, 0xac, 0x4b, 0xcb, 0x01, 0x1d, 0xd1, 0x1f, 
  0x1e, 0xa3, 0xb4, 0xa6, 0xca, 0xdc, 0x25, 0xc1, 0x6d, 0x68, 0x76, 0x48, 
  0x8f, 0xc9, 0xa7, 0xc7, 0x47, 0x07, 0xce, 0x4c, 0xf6, 0xb3, 0xe1, 0xda, 
  0xeb, 0x96, 0x5c, 0x94, 0x93, 0xf6, 0x39, 0x9a, 0x01, 0x89, 0xc5, 0x53, 
  0x7e, 0x81, 0x3f, 0x6a, 0x23, 0x13, 0x52, 0x63, 0x06, 0xfc, 0x8a, 0xa0, 
  0x34, 0x76, 0xd7, 0xb3, 0x29, 0xbf, 0xdb, 0x8c, 0xb7, 0x25, 0xa2, 0xad, 
  0xd1, 0xe4, 0xe7, 0x00, 0x6a, 0x35, 0x00, 0xe8, 0x3b, 0x7c, 0x68, 0x91, 
  0xf2, 0xfd, 0xff, 0xff, 0x04, 0x00, 0x00, 0x00, 0x00, 0x02, 0x00, 0x00, 
  0x57, 0x58, 0xf5, 0xcd, 0xa8, 0x07, 0x2e, 0x02, 0xb2, 0x88, 0xa3, 0xe9, 
  0xdb, 0x62, 0x67, 0xfd, 0xb5, 0xd7, 0xd4, 0xbf, 0x4c, 0xbe, 0xcb, 0xc0, 
  0x97, 0x44, 0xab, 0xe1, 0x7f, 0x70, 0x49, 0xf9, 0x24, 0x2d, 0xd8, 0x7f, 
  0xc5, 0x54, 0x18, 0xb5, 0xdf, 0x5a, 0x49, 0x6e, 0x75, 0x36, 0xd0, 0x71, 
  0xe8, 0xf5, 0x6d, 0xc4, 0xe2, 0xd9, 0xd1, 0x24, 0x4d, 0xd0, 0xc8, 0x1d, 
  0xf6, 0x7d, 0xd7, 0xc6, 0x96, 0x89, 0xa6, 0x46, 0x45, 0x0e, 0x33, 0x1f, 
  0x79, 0xd1, 0x8e, 0x02, 0x55, 0xc4, 0xd1, 0x4b, 0x58, 0x93, 0xbe, 0x19, 
  0x7f, 0x04, 0x5b, 0x7f, 0xe7, 0x7d, 0xba, 0x4a, 0x13, 0x0b, 0xc4, 0x45, 
  0xd8, 0x8d, 0x23, 0x15, 0xf0, 0x6f, 0x4b, 0x4e, 0x32, 0x70, 0x7b, 0xb4, 
  0x39, 0xda, 0x4b, 0x81, 0x27, 0x26, 0xe3, 0x61, 0xc7, 0x56, 0xe7, 0x90, 
  0x4e, 0x2f, 0x50, 0xcd, 0x7b, 0x2a, 0x84, 0xcf, 0x3f, 0x71, 0x36, 0x23, 
  0x0d, 0x33, 0x6e, 0x44, 0x66, 0x5a, 0xc3, 0x77, 0x94, 0x81, 0x1f, 0x48, 
  0xc8, 0xa2, 0x90, 0x8e, 0xd1, 0x85, 0x2a, 0x1d, 0xdf, 0x40, 0xca, 0x90, 
  0xcd, 0xa5, 0xee, 0x60, 0x1a, 0xdd, 0x15, 0x4a, 0x7f, 0xba, 0xc5, 0x29, 
  0x6e, 0xef, 0x87, 0x64, 0x53, 0x4c, 0x3c, 0xd8, 0x98, 0x22, 0x14, 0xea, 
  0xef, 0x61, 0x21, 0x92, 0xda, 0xdd, 0x30, 0x4b, 0xe9, 0xb9, 0x3e, 0x18, 
  0x0e, 0x8a, 0xb5, 0xb5, 0x50, 0x23, 0x60, 0x87, 0x40, 0xc6, 0xc4, 0xe0, 
  0x10, 0xb4, 0x9f, 0x50, 0x1f, 0x37, 0x56, 0x4f, 0x8a, 0x0a, 0x02, 0xca, 
  0x4d, 0x81, 0xb8, 0x83, 0x37, 0x66, 0x22, 0x23, 0x4b, 0x81, 0x93, 0x28, 
  0xaa, 0x62, 0x20, 0x75, 0x93, 0xd5, 0x81, 0x07, 0x0a, 0x92, 0xf0, 0x51, 
  0x7f, 0x0e, 0x89, 0x9f, 0x2a, 0x79, 0x45, 0xe1, 0x03, 0x20, 0xbc, 0x95, 
  0x3e, 0xce, 0xdd, 0xab, 0x57, 0xe3, 0x1b, 0xba, 0x05, 0xa2, 0xbc, 0x2c, 
  0xdb, 0x86, 0x2a, 0xd0, 0xab, 0x4f, 0x1e, 0x36, 0x1f, 0x13, 0x09, 0x5d, 
  0xc8, 0x99, 0xf7, 0x12, 0x14, 0xe9, 0x4d, 0xe9, 0x97, 0x00, 0x81, 0x24, 
  0xe9, 0x74, 0xc0, 0xd7, 0x16, 0x43, 0x06, 0x84, 0xc3, 0xf5, 0xf1, 0xd0, 
  0x00, 0x62, 0xa7, 0x21, 0x41, 0x36, 0xfd, 0xdb, 0xd2, 0x3a, 0x6a, 0x1c, 
  0x5e, 0x17, 0x81, 0x9b, 0xc9, 0x48, 0x38, 0x77, 0x5f, 0x99, 0x78, 0x1f, 
  0xf5, 0xe8, 0xf0, 0xf9, 0x96, 0x3e, 0x24, 0x62, 0xd5, 0xbf, 0x22, 0x8a, 
  0xcf, 0x19, 0x53, 0x9d, 0xad, 0x00, 0x8e, 0xca, 0x30, 0x7f, 0xc4, 0xfa, 
  0x02, 0x54, 0xee, 0x3a, 0xc3, 0xe6, 0x4e, 0xe2, 0xfd, 0xee, 0x41, 0x81, 
  0xac, 0xfc, 0xcc, 0xe0, 0xd5, 0x9c, 0xa6, 0xb3, 0x49, 0x2a, 0x04, 0xd6, 
  0xca, 0x16, 0x4c, 0x7b, 0x9f, 0x44, 0x22, 0x1f, 0x61, 0x95, 0xed, 0x76, 
  0x7c, 0x91, 0x31, 0x1a, 0xce, 0x08, 0x0a, 0xf6, 0x7f, 0x82, 0x2a, 0x25, 
  0x91, 0xcc, 0x2d, 0xcb, 0xa7, 0xe3, 0xf5, 0x35, 0xbe, 0x92, 0x53, 0xdc, 
  0x28, 0x6b, 0x41, 0xa4, 0xa3, 0xe6, 0x82, 0x67, 0xc7, 0xd0, 0xe7, 0xd3, 
  0x15, 0x5e, 0x99, 0x20, 0x45, 0x56, 0x1e, 0xd1, 0x6f, 0x4a, 0x21, 0x7f, 
  0x49, 0x1a, 0xbe, 0x69, 0x57, 0x65, 0x02, 0xb0, 0xa7, 0x85, 0xb7, 0x0d, 
  0xd5, 0x63, 0x76, 0x58, 0xc0, 0xd9, 0x89, 0x0a, 0x89, 0x2e, 0x68, 0x9f, 
  0x65, 0x2f, 0xe8, 0x00, 0x14, 0xbb, 0xcf, 0x55, 0x7d, 0xf4, 0x74, 0xdc, 
  0xee, 0x82, 0x7f, 0x7d, 0x37, 0xc0, 0x02, 0x32, 0x04, 0xb9, 0xdc, 0x83, 
  0x5d, 0x5b, 0xe5, 0x61, 0x5f, 0x0d, 0xf0, 0x15, 0x58, 0x81, 0x1d, 0x8a, 
  0xae, 0x05, 0x2b, 0x6f, 0x71, 0xbb, 0x76, 0xbf, 0xeb, 0x3f, 0x82, 0x02, 
  0x8e, 0x19, 0x1c, 0x36, 0x52, 0x8b, 0x17, 0x48, 0x00, 0x00, 0x06, 0x00, 
  0x08, 0x00, 0x04, 0x00, 0x06, 0x00, 0x00, 0x00, 0x04, 0x00, 0x00, 0x00, 
  0x10, 0x00, 0x00, 0x00, 0xb8, 0x26, 0x19, 0xa5, 0xaf, 0x47, 0x6f, 0x00, 
  0x72, 0xbe, 0xd1, 0xe6, 0xe6, 0x7f, 0xbf, 0x52, 0x54, 0xff, 0xff, 0xff, 
  0x58, 0xff, 0xff, 0xff, 0x0f, 0x00, 0x00, 0x00, 0x4d, 0x4c, 0x49, 0x52, 
  0x20, 0x43, 0x6f, 0x6e, 0x76, 0x65, 0x72, 0x74, 0x65, 0x64, 0x2e, 0x00, 
  0x01, 0x00, 0x00, 0x00, 0x14, 0x00, 0x00, 0x00, 0x00, 0x00, 0x0e, 0x00, 
  0x18, 0x00, 0x14, 0x00, 0x10, 0x00, 0x0c, 0x00, 0x08, 0x00, 0x04, 0x00, 
  0x0e, 0x00, 0x00, 0x00, 0x14, 0x00, 0x00, 0x00, 0x1c, 0x00, 0x00, 0x00, 
  0x0c, 0x01, 0x00, 0x00, 0x10, 0x01, 0x00, 0x00, 0x14, 0x01, 0x00, 0x00, 
  0x04, 0x00, 0x00, 0x00, 0x6d, 0x61, 0x69, 0x6e, 0x00, 0x00, 0x00, 0x00, 
  0x04, 0x00, 0x00, 0x00, 0xb4, 0x00, 0x00, 0x00, 0x6c, 0x00, 0x00, 0x00, 
  0x34, 0x00, 0x00, 0x00, 0x10, 0x00, 0x00, 0x00, 0x00, 0x00, 0x0a, 0x00, 
  0x10, 0x00, 0x0c, 0x00, 0x08, 0x00, 0x04, 0x00, 0x0a, 0x00, 0x00, 0x00, 
  0x0c, 0x00, 0x00, 0x00, 0x10, 0x00, 0x00, 0x00, 0x01, 0x00, 0x00, 0x00, 
  0x01, 0x00, 0x00, 0x00, 0x07, 0x00, 0x00, 0x00, 0x01, 0x00, 0x00, 0x00, 
  0x06, 0x00, 0x00, 0x00, 0x96, 0xff, 0xff, 0xff, 0x14, 0x00, 0x00, 0x00, 
  0x00, 0x00, 0x00, 0x08, 0x10, 0x00, 0x00, 0x00, 0x14, 0x00, 0x00, 0x00, 
  0x04, 0x00, 0x04, 0x00, 0x04, 0x00, 0x00, 0x00, 0x01, 0x00, 0x00, 0x00, 
  0x06, 0x00, 0x00, 0x00, 0x03, 0x00, 0x00, 0x00, 0x05, 0x00, 0x00, 0x00, 
  0x01, 0x00, 0x00, 0x00, 0xff, 0xff, 0xff, 0xff, 0xca, 0xff, 0xff, 0xff, 
  0x10, 0x00, 0x00, 0x00, 0x00, 0x00, 0x00, 0x08, 0x10, 0x00, 0x00, 0x00, 
  0x14, 0x00, 0x00, 0x00, 0xba, 0xff, 0xff, 0xff, 0x00, 0x00, 0x00, 0x01, 
  0x01, 0x00, 0x00, 0x00, 0x05, 0x00, 0x00, 0x00, 0x03, 0x00, 0x00, 0x00, 
  0x04, 0x00, 0x00, 0x00, 0x02, 0x00, 0x00, 0x00, 0xff, 0xff, 0xff, 0xff, 
  0x00, 0x00, 0x0e, 0x00, 0x16, 0x00, 0x00, 0x00, 0x10, 0x00, 0x0c, 0x00, 
  0x0b, 0x00, 0x04, 0x00, 0x0e, 0x00, 0x00, 0x00, 0x18, 0x00, 0x00, 0x00, 
  0x00, 0x00, 0x00, 0x08, 0x18, 0x00, 0x00, 0x00, 0x1c, 0x00, 0x00, 0x00, 
  0x00, 0x00, 0x06, 0x00, 0x08, 0x00, 0x07, 0x00, 0x06, 0x00, 0x00, 0x00, 
  0x00, 0x00, 0x00, 0x01, 0x01, 0x00, 0x00, 0x00, 0x04, 0x00, 0x00, 0x00, 
  0x03, 0x00, 0x00, 0x00, 0x00, 0x00, 0x00, 0x00, 0x03, 0x00, 0x00, 0x00, 
  0xff, 0xff, 0xff, 0xff, 0x01, 0x00, 0x00, 0x00, 0x07, 0x00, 0x00, 0x00, 
  0x01, 0x00, 0x00, 0x00, 0x00, 0x00, 0x00, 0x00, 0x08, 0x00, 0x00, 0x00, 
  0xcc, 0x05, 0x00, 0x00, 0x4c, 0x05, 0x00, 0x00, 0x18, 0x04, 0x00, 0x00, 
  0x3c, 0x02, 0x00, 0x00, 0xa0, 0x01, 0x00, 0x00, 0x04, 0x01, 0x00, 0x00, 
  0x80, 0x00, 0x00, 0x00, 0x04, 0x00, 0x00, 0x00, 0x6a, 0xfa, 0xff, 0xff, 
  0x00, 0x00, 0x00, 0x01, 0x18, 0x00, 0x00, 0x00, 0x20, 0x00, 0x00, 0x00, 
  0x3c, 0x00, 0x00, 0x00, 0x08, 0x00, 0x00, 0x00, 0x00, 0x00, 0x00, 0x09, 
  0x50, 0x00, 0x00, 0x00, 0x02, 0x00, 0x00, 0x00, 0xff, 0xff, 0xff, 0xff, 
  0x01, 0x00, 0x00, 0x00, 0x54, 0xfa, 0xff, 0xff, 0x08, 0x00, 0x00, 0x00, 
  0x10, 0x00, 0x00, 0x00, 0x01, 0x00, 0x00, 0x00, 0x80, 0xff, 0xff, 0xff, 
  0xff, 0xff, 0xff, 0xff, 0x01, 0x00, 0x00, 0x00, 0x00, 0x00, 0x80, 0x3b, 
  0x1b, 0x00, 0x00, 0x00, 0x53, 0x74, 0x61, 0x74, 0x65, 0x66, 0x75, 0x6c, 
  0x50, 0x61, 0x72, 0x74, 0x69, 0x74, 0x69, 0x6f, 0x6e, 0x65, 0x64, 0x43, 
  0x61, 0x6c, 0x6c, 0x5f, 0x31, 0x3a, 0x30, 0x00, 0x02, 0x00, 0x00, 0x00, 
  0x01, 0x00, 0x00, 0x00, 0x01, 0x00, 0x00, 0x00, 0xe2, 0xfa, 0xff, 0xff, 
  0x00, 0x00, 0x00, 0x01, 0x18, 0x00, 0x00, 0x00, 0x20, 0x00, 0x00, 0x00, 
  0x40, 0x00, 0x00, 0x00, 0x07, 0x00, 0x00, 0x00, 0x00, 0x00, 0x00, 0x09, 
  0x58, 0x00, 0x00, 0x00, 0x02, 0x00, 0x00, 0x00, 0xff, 0xff, 0xff, 0xff, 
  0x01, 0x00, 0x00, 0x00, 0xcc, 0xfa, 0xff, 0xff, 0x08, 0x00, 0x00, 0x00, 
  0x14, 0x00, 0x00, 0x00, 0x01, 0x00, 0x00, 0x00, 0xc4, 0xff, 0xff, 0xff, 
  0xff, 0xff, 0xff, 0xff, 0x00, 0x00, 0x00, 0x00, 0x01, 0x00, 0x00, 0x00, 
  0x3b, 0xeb, 0xd1, 0x3c, 0x1c, 0x00, 0x00, 0x00, 0x73, 0x65, 0x71, 0x75, 
  0x65, 0x6e, 0x74, 0x69, 0x61, 0x6c, 0x5f, 0x31, 0x2f, 0x6f, 0x75, 0x74, 
  0x70, 0x75, 0x74, 0x5f, 0x31, 0x2f, 0x4d, 0x61, 0x74, 0x4d, 0x75, 0x6c, 
  0x00, 0x00, 0x00, 0x00, 0x02, 0x00, 0x00, 0x00, 0x01, 0x00, 0x00, 0x00, 
  0x01, 0x00, 0x00, 0x00, 0x62, 0xfb, 0xff, 0xff, 0x00, 0x00, 0x00, 0x01, 
  0x18, 0x00, 0x00, 0x00, 0x20, 0x00, 0x00, 0x00, 0x3c, 0x00, 0x00, 0x00, 
  0x06, 0x00, 0x00, 0x00, 0x00, 0x00, 0x00, 0x09, 0x70, 0x00, 0x00, 0x00, 
  0x02, 0x00, 0x00, 0x00, 0xff, 0xff, 0xff, 0xff, 0x10, 0x00, 0x00, 0x00, 
  0x4c, 0xfb, 0xff, 0xff, 0x08, 0x00, 0x00, 0x00, 0x10, 0x00, 0x00, 0x00, 
  0x01, 0x00, 0x00, 0x00, 0x80, 0xff, 0xff, 0xff, 0xff, 0xff, 0xff, 0xff, 
  0x01, 0x00, 0x00, 0x00, 0x4a, 0x66, 0xc7, 0x3c, 0x39, 0x00, 0x00, 0x00, 
  0x73, 0x65, 0x71, 0x75, 0x65, 0x6e, 0x74, 0x69, 0x61, 0x6c, 0x5f, 0x31, 
  0x2f, 0x68, 0x69, 0x64, 0x64, 0x65, 0x6e, 0x32, 0x5f, 0x31, 0x2f, 0x4d, 
  0x61, 0x74, 0x4d, 0x75, 0x6c, 0x3b, 0x73, 0x65, 0x71, 0x75, 0x65, 0x6e, 
  0x74, 0x69, 0x61, 0x6c, 0x5f, 0x31, 0x2f, 0x68, 0x69, 0x64, 0x64, 0x65, 
  0x6e, 0x32, 0x5f, 0x31, 0x2f, 0x52, 0x65, 0x6c, 0x75, 0x00, 0x00, 0x00, 
  0x02, 0x00, 0x00, 0x00, 0x01, 0x00, 0x00, 0x00, 0x10, 0x00, 0x00, 0x00, 
  0xfa, 0xfb, 0xff, 0xff, 0x00, 0x00, 0x00, 0x01, 0x18, 0x00, 0x00, 0x00, 
  0x20, 0x00, 0x00, 0x00, 0x3c, 0x00, 0x00, 0x00, 0x05, 0x00, 0x00, 0x00, 
  0x00, 0x00, 0x00, 0x09, 0x70, 0x00, 0x00, 0x00, 0x02, 0x00, 0x00, 0x00, 
  0xff, 0xff, 0xff, 0xff, 0x20, 0x00, 0x00, 0x00, 0xe4, 0xfb, 0xff, 0xff, 
  0x08, 0x00, 0x00, 0x00, 0x10, 0x00, 0x00, 0x00, 0x01, 0x00, 0x00, 0x00, 
  0x80, 0xff, 0xff, 0xff, 0xff, 0xff, 0xff, 0xff, 0x01, 0x00, 0x00, 0x00, 
  0x11, 0x69, 0xe9, 0x3c, 0x39, 0x00, 0x00, 0x00, 0x73, 0x65, 0x71, 0x75, 
  0x65, 0x6e, 0x74, 0x69, 0x61, 0x6c, 0x5f, 0x31, 0x2f, 0x68, 0x69, 0x64, 
  0x64, 0x65, 0x6e, 0x31, 0x5f, 0x31, 0x2f, 0x4d, 0x61, 0x74, 0x4d, 0x75, 
  0x6c, 0x3b, 0x73, 0x65, 0x71, 0x75, 0x65, 0x6e, 0x74, 0x69, 0x61, 0x6c, 
  0x5f, 0x31, 0x2f, 0x68, 0x69, 0x64, 0x64, 0x65, 0x6e, 0x31, 0x5f, 0x31, 
  0x2f, 0x52, 0x65, 0x6c, 0x75, 0x00, 0x00, 0x00, 0x02, 0x00, 0x00, 0x00, 
  0x01, 0x00, 0x00, 0x00, 0x20, 0x00, 0x00, 0x00, 0x0e, 0xfd, 0xff, 0xff, 
  0x00, 0x00, 0x00, 0x01, 0x14, 0x00, 0x00, 0x00, 0xa8, 0x01, 0x00, 0x00, 
  0x04, 0x00, 0x00, 0x00, 0x00, 0x00, 0x00, 0x09, 0xb4, 0x01, 0x00, 0x00, 
  0x6c, 0xfc, 0xff, 0xff, 0x08, 0x00, 0x00, 0x00, 0x0c, 0x01, 0x00, 0x00, 
  0x20, 0x00, 0x00, 0x00, 0x00, 0x00, 0x00, 0x00, 0x00, 0x00, 0x00, 0x00, 
  0x00, 0x00, 0x00, 0x00, 0x00, 0x00, 0x00, 0x00, 0x00, 0x00, 0x00, 0x00, 
  0x00, 0x00, 0x00, 0x00, 0x00, 0x00, 0x00, 0x00, 0x00, 0x00, 0x00, 0x00, 
  0x00, 0x00, 0x00, 0x00, 0x00, 0x00, 0x00, 0x00, 0x00, 0x00, 0x00, 0x00, 
  0x00, 0x00, 0x00, 0x00, 0x00, 0x00, 0x00, 0x00, 0x00, 0x00, 0x00, 0x00, 
  0x00, 0x00, 0x00, 0x00, 0x00, 0x00, 0x00, 0x00, 0x00, 0x00, 0x00, 0x00, 
  0x00, 0x00, 0x00, 0x00, 0x00, 0x00, 0x00, 0x00, 0x00, 0x00, 0x00, 0x00, 
  0x00, 0x00, 0x00, 0x00, 0x00, 0x00, 0x00, 0x00, 0x00, 0x00, 0x00, 0x00, 
  0x00, 0x00, 0x00, 0x00, 0x00, 0x00, 0x00, 0x00, 0x00, 0x00, 0x00, 0x00, 
  0x00, 0x00, 0x00, 0x00, 0x00, 0x00, 0x00, 0x00, 0x00, 0x00, 0x00, 0x00, 
  0x00, 0x00, 0x00, 0x00, 0x00, 0x00, 0x00, 0x00, 0x00, 0x00, 0x00, 0x00, 
  0x00, 0x00, 0x00, 0x00, 0x00, 0x00, 0x00, 0x00, 0x00, 0x00, 0x00, 0x00, 
  0x00, 0x00, 0x00, 0x00, 0x00, 0x00, 0x00, 0x00, 0x00, 0x00, 0x00, 0x00, 
  0x00, 0x00, 0x00, 0x00, 0x00, 0x00, 0x00, 0x00, 0x00, 0x00, 0x00, 0x00, 
  0x00, 0x00, 0x00, 0x00, 0x00, 0x00, 0x00, 0x00, 0x00, 0x00, 0x00, 0x00, 
  0x00, 0x00, 0x00, 0x00, 0x00, 0x00, 0x00, 0x00, 0x00, 0x00, 0x00, 0x00, 
  0x00, 0x00, 0x00, 0x00, 0x00, 0x00, 0x00, 0x00, 0x00, 0x00, 0x00, 0x00, 
  0x00, 0x00, 0x00, 0x00, 0x00, 0x00, 0x00, 0x00, 0x00, 0x00, 0x00, 0x00, 
  0x00, 0x00, 0x00, 0x00, 0x00, 0x00, 0x00, 0x00, 0x00, 0x00, 0x00, 0x00, 
  0x00, 0x00, 0x00, 0x00, 0x00, 0x00, 0x00, 0x00, 0x00, 0x00, 0x00, 0x00, 
  0x00, 0x00, 0x00, 0x00, 0x00, 0x00, 0x00, 0x00, 0x00, 0x00, 0x00, 0x00, 
  0x00, 0x00, 0x00, 0x00, 0x00, 0x00, 0x00, 0x00, 0x00, 0x00, 0x00, 0x00, 
  0x20, 0x00, 0x00, 0x00, 0x06, 0x24, 0xdd, 0x3a, 0xec, 0x15, 0xdf, 0x3a, 
  0x18, 0x1e, 0xdf, 0x3a, 0x79, 0x79, 0xdf, 0x3a, 0x4e, 0x75, 0xde, 0x3a, 
  0x47, 0xe9, 0xde, 0x3a, 0x0b, 0x99, 0xd5, 0x3a, 0x6f, 0x43, 0xe0, 0x3a, 
  0x36, 0x43, 0xdf, 0x3a, 0xd1, 0x0c, 0xe0, 0x3a, 0x3c, 0xba, 0xdc, 0x3a, 
  0xdd, 0xc9, 0xdf, 0x3a, 0x93, 0xdf, 0xdd, 0x3a, 0x6b, 0xff, 0xdd, 0x3a, 
  0xa7, 0x65, 0xdf, 0x3a, 0xdc, 0x06, 0xdf, 0x3a, 0x47, 0x70, 0xdf, 0x3a, 
  0xab, 0x5b, 0xd3, 0x3a, 0x51, 0xab, 0xdf, 0x3a, 0x65, 0xc5, 0xdf, 0x3a, 
  0x50, 0xf8, 0xdd, 0x3a, 0x44, 0x2d, 0xda, 0x3a, 0x27, 0x02, 0xdf, 0x3a, 
  0xa7, 0xa6, 0xdb, 0x3a, 0x12, 0xe8, 0xdb, 0x3a, 0x5d, 0x3e, 0xe0, 0x3a, 
  0x5f, 0x45, 0xde, 0x3a, 0xce, 0xdf, 0xde, 0x3a, 0x95, 0xf5, 0xde, 0x3a, 
  0x59, 0xf3, 0xdf, 0x3a, 0x4e, 0xa2, 0xdf, 0x3a, 0xa4, 0x3e, 0xdf, 0x3a, 
  0x12, 0x00, 0x00, 0x00, 0x74, 0x66, 0x6c, 0x2e, 0x70, 0x73, 0x65, 0x75, 
  0x64, 0x6f, 0x5f, 0x71, 0x63, 0x6f, 0x6e, 0x73, 0x74, 0x32, 0x00, 0x00, 
  0x02, 0x00, 0x00, 0x00, 0x20, 0x00, 0x00, 0x00, 0x5f, 0x00, 0x00, 0x00, 
  0xe6, 0xfe, 0xff, 0xff, 0x00, 0x00, 0x00, 0x01, 0x14, 0x00, 0x00, 0x00, 
  0xe8, 0x00, 0x00, 0x00, 0x03, 0x00, 0x00, 0x00, 0x00, 0x00, 0x00, 0x09, 
  0xf4, 0x00, 0x00, 0x00, 0x44, 0xfe, 0xff, 0xff, 0x08, 0x00, 0x00, 0x00, 
  0x8c, 0x00, 0x00, 0x00, 0x10, 0x00, 0x00, 0x00, 0x00, 0x00, 0x00, 0x00, 
  0x00, 0x00, 0x00, 0x00, 0x00, 0x00, 0x00, 0x00, 0x00, 0x00, 0x00, 0x00, 
  0x00, 0x00, 0x00, 0x00, 0x00, 0x00, 0x00, 0x00, 0x00, 0x00, 0x00, 0x00, 
  0x00, 0x00, 0x00, 0x00, 0x00, 0x00, 0x00, 0x00, 0x00, 0x00, 0x00, 0x00, 
  0x00, 0x00, 0x00, 0x00, 0x00, 0x00, 0x00, 0x00, 0x00, 0x00, 0x00, 0x00, 
  0x00, 0x00, 0x00, 0x00, 0x00, 0x00, 0x00, 0x00, 0x00, 0x00, 0x00, 0x00, 
  0x00, 0x00, 0x00, 0x00, 0x00, 0x00, 0x00, 0x00, 0x00, 0x00, 0x00, 0x00, 
  0x00, 0x00, 0x00, 0x00, 0x00, 0x00, 0x00, 0x00, 0x00, 0x00, 0x00, 0x00, 
  0x00, 0x00, 0x00, 0x00, 0x00, 0x00, 0x00, 0x00, 0x00, 0x00, 0x00, 0x00, 
  0x00, 0x00, 0x00, 0x00, 0x00, 0x00, 0x00, 0x00, 0x00, 0x00, 0x00, 0x00, 
  0x00, 0x00, 0x00, 0x00, 0x00, 0x00, 0x00, 0x00, 0x00, 0x00, 0x00, 0x00, 
  0x00, 0x00, 0x00, 0x00, 0x00, 0x00, 0x00, 0x00, 0x10, 0x00, 0x00, 0x00, 
  0xd5, 0x65, 0x33, 0x3b, 0x50, 0x31, 0x35, 0x3b, 0x88, 0x16, 0x33, 0x3b, 
  0x8b, 0xc7, 0x33, 0x3b, 0x07, 0x08, 0x32, 0x3b, 0x62, 0xbe, 0x35, 0x3b, 
  0x9c, 0xff, 0x33, 0x3b, 0x00, 0x59, 0x35, 0x3b, 0x1f, 0x56, 0x36, 0x3b, 
  0x6d, 0x8a, 0x2d, 0x3b, 0x46, 0xe6, 0x17, 0x3b, 0x0a, 0x06, 0x33, 0x3b, 
  0x01, 0xae, 0x34, 0x3b, 0x9e, 0x5d, 0x36, 0x3b, 0xa2, 0x4b, 0x36, 0x3b, 
  0x9b, 0xe8, 0x2c, 0x3b, 0x12, 0x00, 0x00, 0x00, 0x74, 0x66, 0x6c, 0x2e, 
  0x70, 0x73, 0x65, 0x75, 0x64, 0x6f, 0x5f, 0x71, 0x63, 0x6f, 0x6e, 0x73, 
  0x74, 0x31, 0x00, 0x00, 0x02, 0x00, 0x00, 0x00, 0x10, 0x00, 0x00, 0x00, 
  0x20, 0x00, 0x00, 0x00, 0x00, 0x00, 0x16, 0x00, 0x1c, 0x00, 0x18, 0x00, 
  0x17, 0x00, 0x10, 0x00, 0x0c, 0x00, 0x08, 0x00, 0x00, 0x00, 0x00, 0x00, 
  0x00, 0x00, 0x07, 0x00, 0x16, 0x00, 0x00, 0x00, 0x00, 0x00, 0x00, 0x01, 
  0x14, 0x00, 0x00, 0x00, 0x34, 0x00, 0x00, 0x00, 0x02, 0x00, 0x00, 0x00, 
  0x00, 0x00, 0x00, 0x09, 0x40, 0x00, 0x00, 0x00, 0x74, 0xff, 0xff, 0xff, 
  0x08, 0x00, 0x00, 0x00, 0x14, 0x00, 0x00, 0x00, 0x01, 0x00, 0x00, 0x00, 
  0x00, 0x00, 0x00, 0x00, 0x00, 0x00, 0x00, 0x00, 0x00, 0x00, 0x00, 0x00, 
  0x01, 0x00, 0x00, 0x00, 0xf4, 0x1d, 0x99, 0x3b, 0x11, 0x00, 0x00, 0x00, 
  0x74, 0x66, 0x6c, 0x2e, 0x70, 0x73, 0x65, 0x75, 0x64, 0x6f, 0x5f, 0x71, 
  0x63, 0x6f, 0x6e, 0x73, 0x74, 0x00, 0x00, 0x00, 0x02, 0x00, 0x00, 0x00, 
  0x01, 0x00, 0x00, 0x00, 0x10, 0x00, 0x00, 0x00, 0x00, 0x00, 0x16, 0x00, 
  0x20, 0x00, 0x1c, 0x00, 0x1b, 0x00, 0x14, 0x00, 0x10, 0x00, 0x0c, 0x00, 
  0x00, 0x00, 0x00, 0x00, 0x08, 0x00, 0x07, 0x00, 0x16, 0x00, 0x00, 0x00, 
  0x00, 0x00, 0x00, 0x01, 0x18, 0x00, 0x00, 0x00, 0x2c, 0x00, 0x00, 0x00, 
  0x48, 0x00, 0x00, 0x00, 0x01, 0x00, 0x00, 0x00, 0x00, 0x00, 0x00, 0x09, 
  0x58, 0x00, 0x00, 0x00, 0x02, 0x00, 0x00, 0x00, 0xff, 0xff, 0xff, 0xff, 
  0x5f, 0x00, 0x00, 0x00, 0x0c, 0x00, 0x0c, 0x00, 0x00, 0x00, 0x00, 0x00, 
  0x08, 0x00, 0x04, 0x00, 0x0c, 0x00, 0x00, 0x00, 0x08, 0x00, 0x00, 0x00, 
  0x10, 0x00, 0x00, 0x00, 0x01, 0x00, 0x00, 0x00, 0x00, 0x00, 0x00, 0x00, 
  0x00, 0x00, 0x00, 0x00, 0x01, 0x00, 0x00, 0x00, 0x76, 0xaf, 0xc0, 0x3c, 
  0x17, 0x00, 0x00, 0x00, 0x73, 0x65, 0x72, 0x76, 0x69, 0x6e, 0x67, 0x5f, 
  0x64, 0x65, 0x66, 0x61, 0x75, 0x6c, 0x74, 0x5f, 0x69, 0x6e, 0x70, 0x75, 
  0x74, 0x3a, 0x30, 0x00, 0x02, 0x00, 0x00, 0x00, 0x01, 0x00, 0x00, 0x00, 
  0x5f, 0x00, 0x00, 0x00, 0x02, 0x00, 0x00, 0x00, 0x24, 0x00, 0x00, 0x00, 
  0x04, 0x00, 0x00, 0x00, 0xf0, 0xff, 0xff, 0xff, 0x0e, 0x00, 0x00, 0x00, 
  0x02, 0x00, 0x00, 0x00, 0x00, 0x00, 0x00, 0x0e, 0x0c, 0x00, 0x10, 0x00, 
  0x0f, 0x00, 0x00, 0x00, 0x08, 0x00, 0x04, 0x00, 0x0c, 0x00, 0x00, 0x00, 
  0x09, 0x00, 0x00, 0x00, 0x04, 0x00, 0x00, 0x00, 0x00, 0x00, 0x00, 0x09
};

#endif // MODEL_DATA_H
